{
  "version": "1.0",
  "truncation": null,
  "padding": null,
  "added_tokens": [
    {
      "id": 0,
      "content": "<unk>",
      "single_word": false,
      "lstrip": false,
      "rstrip": false,
      "normalized": false,
      "special": true
    }
  ],
  "normalizer": {
    "type": "NFKC"
  },
  "pre_tokenizer": {
    "type": "Metaspace",
    "replacement": "▁",
    "add_prefix_space": true
  },
  "post_processor": null,
  "decoder": {
    "type": "Metaspace",
    "replacement": "▁",
    "add_prefix_space": true
  },
  "model": {
    "type": "BPE",
    "dropout": null,
    "unk_token": null,
    "continuing_subword_prefix": null,
    "end_of_word_suffix": null,
    "fuse_unk": false,
    "vocab": {
      "<unk>": 0,
      "\n": 1,
      "!": 2,
      "\"": 3,
      "#": 4,
      "$": 5,
      "%": 6,
      "&": 7,
      "'": 8,
      "(": 9,
      ")": 10,
      "*": 11,
      "+": 12,
      ",": 13,
      "-": 14,
      ".": 15,
      "/": 16,
      "0": 17,
      "1": 18,
      "2": 19,
      "3": 20,
      "4": 21,
      "5": 22,
      "6": 23,
      "7": 24,
      "8": 25,
      "9": 26,
      ":": 27,
      ";": 28,
      "<": 29,
      "=": 30,
      ">": 31,
      "?": 32,
      "@": 33,
      "A": 34,
      "B": 35,
      "C": 36,
      "D": 37,
      "E": 38,
      "F": 39,
      "G": 40,
      "H": 41,
      "I": 42,
      "J": 43,
      "K": 44,
      "L": 45,
      "M": 46,
      "N": 47,
      "O": 48,
      "P": 49,
      "Q": 50,
      "R": 51,
      "S": 52,
      "T": 53,
      "U": 54,
      "V": 55,
      "W": 56,
      "X": 57,
      "Y": 58,
      "Z": 59,
      "[": 60,
      "\\": 61,
      "]": 62,
      "^": 63,
      "_": 64,
      "`": 65,
      "a": 66,
      "b": 67,
      "c": 68,
      "d": 69,
      "e": 70,
      "f": 71,
      "g": 72,
      "h": 73,
      "i": 74,
      "j": 75,
      "k": 76,
      "l": 77,
      "m": 78,
      "n": 79,
      "o": 80,
      "p": 81,
      "q": 82,
      "r": 83,
      "s": 84,
      "t": 85,
      "u": 86,
      "v": 87,
      "w": 88,
      "x": 89,
      "y": 90,
      "z": 91,
      "{": 92,
      "|": 93,
      "}": 94,
      "~": 95,
      "": 96,
      "¡": 97,
      "¢": 98,
      "£": 99,
      "¥": 100,
      "¦": 101,
      "§": 102,
      "«": 103,
      "­": 104,
      "°": 105,
      "±": 106,
      "·": 107,
      "»": 108,
      "Á": 109,
      "Ä": 110,
      "Å": 111,
      "Æ": 112,
      "É": 113,
      "Í": 114,
      "Î": 115,
      "Ñ": 116,
      "Ö": 117,
      "×": 118,
      "Ø": 119,
      "Ü": 120,
      "ß": 121,
      "à": 122,
      "á": 123,
      "â": 124,
      "ã": 125,
      "ä": 126,
      "å": 127,
      "æ": 128,
      "ç": 129,
      "è": 130,
      "é": 131,
      "ê": 132,
      "ë": 133,
      "ì": 134,
      "í": 135,
      "î": 136,
      "ï": 137,
      "ð": 138,
      "ñ": 139,
      "ò": 140,
      "ó": 141,
      "ô": 142,
      "õ": 143,
      "ö": 144,
      "÷": 145,
      "ø": 146,
      "ù": 147,
      "ú": 148,
      "û": 149,
      "ü": 150,
      "ý": 151,
      "Ā": 152,
      "ā": 153,
      "ă": 154,
      "ć": 155,
      "Č": 156,
      "č": 157,
      "đ": 158,
      "ē": 159,
      "ė": 160,
      "ě": 161,
      "ğ": 162,
      "ħ": 163,
      "ī": 164,
      "İ": 165,
      "ı": 166,
      "ł": 167,
      "ń": 168,
      "ŋ": 169,
      "Ō": 170,
      "ō": 171,
      "œ": 172,
      "Ś": 173,
      "ś": 174,
      "ş": 175,
      "Š": 176,
      "š": 177,
      "ţ": 178,
      "ū": 179,
      "ž": 180,
      "ƒ": 181,
      "ư": 182,
      "ǎ": 183,
      "ǐ": 184,
      "ǒ": 185,
      "ǔ": 186,
      "ɐ": 187,
      "ɑ": 188,
      "ɒ": 189,
      "ɔ": 190,
      "ə": 191,
      "ɛ": 192,
      "ɡ": 193,
      "ɨ": 194,
      "ɪ": 195,
      "ɲ": 196,
      "ɴ": 197,
      "ɾ": 198,
      "ʁ": 199,
      "ʂ": 200,
      "ʃ": 201,
      "ʊ": 202,
      "ʒ": 203,
      "ʹ": 204,
      "ʻ": 205,
      "ʼ": 206,
      "ʾ": 207,
      "ʿ": 208,
      "ˈ": 209,
      "ˌ": 210,
      "ː": 211,
      "̀": 212,
      "́": 213,
      "̃": 214,
      "̆": 215,
      "̈": 216,
      "̊": 217,
      "̧": 218,
      "̩": 219,
      "͡": 220,
      "Α": 221,
      "Β": 222,
      "Γ": 223,
      "Δ": 224,
      "Ε": 225,
      "Θ": 226,
      "Ι": 227,
      "Κ": 228,
      "Λ": 229,
      "Μ": 230,
      "Ν": 231,
      "Ο": 232,
      "Π": 233,
      "Ρ": 234,
      "Σ": 235,
      "Τ": 236,
      "Υ": 237,
      "Φ": 238,
      "Χ": 239,
      "Ω": 240,
      "ά": 241,
      "έ": 242,
      "ή": 243,
      "ί": 244,
      "α": 245,
      "β": 246,
      "γ": 247,
      "δ": 248,
      "ε": 249,
      "ζ": 250,
      "η": 251,
      "θ": 252,
      "ι": 253,
      "κ": 254,
      "λ": 255,
      "μ": 256,
      "ν": 257,
      "ξ": 258,
      "ο": 259,
      "π": 260,
      "ρ": 261,
      "ς": 262,
      "σ": 263,
      "τ": 264,
      "υ": 265,
      "φ": 266,
      "χ": 267,
      "ψ": 268,
      "ω": 269,
      "ό": 270,
      "ύ": 271,
      "ώ": 272,
      "А": 273,
      "Б": 274,
      "В": 275,
      "Г": 276,
      "Д": 277,
      "Е": 278,
      "И": 279,
      "К": 280,
      "Л": 281,
      "М": 282,
      "Н": 283,
      "О": 284,
      "П": 285,
      "Р": 286,
      "С": 287,
      "Т": 288,
      "У": 289,
      "Ф": 290,
      "Х": 291,
      "Ш": 292,
      "Я": 293,
      "а": 294,
      "б": 295,
      "в": 296,
      "г": 297,
      "д": 298,
      "е": 299,
      "ж": 300,
      "з": 301,
      "и": 302,
      "й": 303,
      "к": 304,
      "л": 305,
      "м": 306,
      "н": 307,
      "о": 308,
      "п": 309,
      "р": 310,
      "с": 311,
      "т": 312,
      "у": 313,
      "х": 314,
      "ц": 315,
      "ч": 316,
      "ш": 317,
      "ы": 318,
      "ь": 319,
      "э": 320,
      "ю": 321,
      "я": 322,
      "ё": 323,
      "і": 324,
      "ү": 325,
      "ө": 326,
      "ա": 327,
      "ե": 328,
      "ի": 329,
      "ն": 330,
      "ր": 331,
      "ְ": 332,
      "ִ": 333,
      "ֵ": 334,
      "ֶ": 335,
      "ַ": 336,
      "ָ": 337,
      "ֹ": 338,
      "ּ": 339,
      "ׁ": 340,
      "א": 341,
      "ב": 342,
      "ג": 343,
      "ד": 344,
      "ה": 345,
      "ו": 346,
      "ז": 347,
      "ח": 348,
      "ט": 349,
      "י": 350,
      "ך": 351,
      "כ": 352,
      "ל": 353,
      "ם": 354,
      "מ": 355,
      "ן": 356,
      "נ": 357,
      "ס": 358,
      "ע": 359,
      "פ": 360,
      "צ": 361,
      "ק": 362,
      "ר": 363,
      "ש": 364,
      "ת": 365,
      "ء": 366,
      "آ": 367,
      "أ": 368,
      "إ": 369,
      "ئ": 370,
      "ا": 371,
      "ب": 372,
      "ة": 373,
      "ت": 374,
      "ث": 375,
      "ج": 376,
      "ح": 377,
      "خ": 378,
      "د": 379,
      "ذ": 380,
      "ر": 381,
      "ز": 382,
      "س": 383,
      "ش": 384,
      "ص": 385,
      "ض": 386,
      "ط": 387,
      "ظ": 388,
      "ع": 389,
      "غ": 390,
      "ف": 391,
      "ق": 392,
      "ك": 393,
      "ل": 394,
      "م": 395,
      "ن": 396,
      "ه": 397,
      "و": 398,
      "ى": 399,
      "ي": 400,
      "ٌ": 401,
      "َ": 402,
      "ُ": 403,
      "ِ": 404,
      "ّ": 405,
      "ْ": 406,
      "ٹ": 407,
      "پ": 408,
      "چ": 409,
      "ڑ": 410,
      "ڤ": 411,
      "ک": 412,
      "گ": 413,
      "ھ": 414,
      "ہ": 415,
      "ۇ": 416,
      "ی": 417,
      "ە": 418,
      "ަ": 419,
      "ँ": 420,
      "ं": 421,
      "ः": 422,
      "अ": 423,
      "आ": 424,
      "इ": 425,
      "ई": 426,
      "उ": 427,
      "ए": 428,
      "ओ": 429,
      "क": 430,
      "ख": 431,
      "ग": 432,
      "घ": 433,
      "ङ": 434,
      "च": 435,
      "छ": 436,
      "ज": 437,
      "झ": 438,
      "ञ": 439,
      "ट": 440,
      "ठ": 441,
      "ड": 442,
      "ढ": 443,
      "ण": 444,
      "त": 445,
      "थ": 446,
      "द": 447,
      "ध": 448,
      "न": 449,
      "प": 450,
      "फ": 451,
      "ब": 452,
      "भ": 453,
      "म": 454,
      "य": 455,
      "र": 456,
      "ल": 457,
      "ळ": 458,
      "व": 459,
      "श": 460,
      "ष": 461,
      "स": 462,
      "ह": 463,
      "़": 464,
      "ा": 465,
      "ि": 466,
      "ी": 467,
      "ु": 468,
      "ू": 469,
      "ृ": 470,
      "े": 471,
      "ै": 472,
      "ो": 473,
      "ौ": 474,
      "्": 475,
      "ॐ": 476,
      "।": 477,
      "ং": 478,
      "অ": 479,
      "আ": 480,
      "ই": 481,
      "উ": 482,
      "ক": 483,
      "খ": 484,
      "গ": 485,
      "ঙ": 486,
      "চ": 487,
      "জ": 488,
      "ট": 489,
      "ড": 490,
      "ণ": 491,
      "ত": 492,
      "দ": 493,
      "ধ": 494,
      "ন": 495,
      "প": 496,
      "ব": 497,
      "ভ": 498,
      "ম": 499,
      "য": 500,
      "র": 501,
      "ল": 502,
      "শ": 503,
      "ষ": 504,
      "স": 505,
      "হ": 506,
      "়": 507,
      "া": 508,
      "ি": 509,
      "ী": 510,
      "ু": 511,
      "ে": 512,
      "ৈ": 513,
      "ো": 514,
      "্": 515,
      "ৰ": 516,
      "ਂ": 517,
      "ਅ": 518,
      "ਆ": 519,
      "ਕ": 520,
      "ਖ": 521,
      "ਗ": 522,
      "ਘ": 523,
      "ਜ": 524,
      "ਟ": 525,
      "ਤ": 526,
      "ਥ": 527,
      "ਦ": 528,
      "ਨ": 529,
      "ਪ": 530,
      "ਬ": 531,
      "ਭ": 532,
      "ਮ": 533,
      "ਯ": 534,
      "ਰ": 535,
      "ਲ": 536,
      "ਵ": 537,
      "ਸ": 538,
      "ਹ": 539,
      "਼": 540,
      "ਾ": 541,
      "ਿ": 542,
      "ੀ": 543,
      "ੁ": 544,
      "ੂ": 545,
      "ੇ": 546,
      "ੋ": 547,
      "੍": 548,
      "ੜ": 549,
      "ੰ": 550,
      "ੱ": 551,
      "ં": 552,
      "ગ": 553,
      "ત": 554,
      "દ": 555,
      "ન": 556,
      "મ": 557,
      "ર": 558,
      "સ": 559,
      "હ": 560,
      "ા": 561,
      "ી": 562,
      "ે": 563,
      "્": 564,
      "କ": 565,
      "ର": 566,
      "ା": 567,
      "ି": 568,
      "୍": 569,
      "ஃ": 570,
      "அ": 571,
      "ஆ": 572,
      "இ": 573,
      "ஈ": 574,
      "உ": 575,
      "ஊ": 576,
      "எ": 577,
      "ஏ": 578,
      "ஐ": 579,
      "ஒ": 580,
      "ஓ": 581,
      "ஔ": 582,
      "க": 583,
      "ங": 584,
      "ச": 585,
      "ஜ": 586,
      "ஞ": 587,
      "ட": 588,
      "ண": 589,
      "த": 590,
      "ந": 591,
      "ன": 592,
      "ப": 593,
      "ம": 594,
      "ய": 595,
      "ர": 596,
      "ற": 597,
      "ல": 598,
      "ள": 599,
      "ழ": 600,
      "வ": 601,
      "ஶ": 602,
      "ஷ": 603,
      "ஸ": 604,
      "ஹ": 605,
      "ா": 606,
      "ி": 607,
      "ீ": 608,
      "ு": 609,
      "ூ": 610,
      "ெ": 611,
      "ே": 612,
      "ை": 613,
      "ொ": 614,
      "ோ": 615,
      "ௌ": 616,
      "்": 617,
      "ௗ": 618,
      "௦": 619,
      "௧": 620,
      "௨": 621,
      "௩": 622,
      "௪": 623,
      "௫": 624,
      "௬": 625,
      "௭": 626,
      "௮": 627,
      "௯": 628,
      "௰": 629,
      "௲": 630,
      "௹": 631,
      "ం": 632,
      "అ": 633,
      "క": 634,
      "గ": 635,
      "చ": 636,
      "జ": 637,
      "ట": 638,
      "డ": 639,
      "త": 640,
      "ద": 641,
      "ధ": 642,
      "న": 643,
      "ప": 644,
      "బ": 645,
      "భ": 646,
      "మ": 647,
      "య": 648,
      "ర": 649,
      "ఱ": 650,
      "ల": 651,
      "ళ": 652,
      "వ": 653,
      "శ": 654,
      "ష": 655,
      "స": 656,
      "ా": 657,
      "ి": 658,
      "ీ": 659,
      "ు": 660,
      "ూ": 661,
      "ె": 662,
      "ే": 663,
      "ొ": 664,
      "ో": 665,
      "్": 666,
      "ಂ": 667,
      "ಅ": 668,
      "ಕ": 669,
      "ಗ": 670,
      "ಚ": 671,
      "ಜ": 672,
      "ಟ": 673,
      "ಡ": 674,
      "ಣ": 675,
      "ತ": 676,
      "ಥ": 677,
      "ದ": 678,
      "ಧ": 679,
      "ನ": 680,
      "ಪ": 681,
      "ಬ": 682,
      "ಮ": 683,
      "ಯ": 684,
      "ರ": 685,
      "ಲ": 686,
      "ಳ": 687,
      "ವ": 688,
      "ಶ": 689,
      "ಷ": 690,
      "ಸ": 691,
      "ಹ": 692,
      "ಾ": 693,
      "ಿ": 694,
      "ೀ": 695,
      "ು": 696,
      "ೂ": 697,
      "ೆ": 698,
      "ೇ": 699,
      "ೊ": 700,
      "ೋ": 701,
      "ೌ": 702,
      "್": 703,
      "೦": 704,
      "ം": 705,
      "അ": 706,
      "ആ": 707,
      "ക": 708,
      "ഗ": 709,
      "ങ": 710,
      "ച": 711,
      "ജ": 712,
      "ഞ": 713,
      "ട": 714,
      "ണ": 715,
      "ത": 716,
      "ദ": 717,
      "ന": 718,
      "പ": 719,
      "ബ": 720,
      "ഭ": 721,
      "മ": 722,
      "യ": 723,
      "ര": 724,
      "റ": 725,
      "ല": 726,
      "ള": 727,
      "ഴ": 728,
      "വ": 729,
      "ശ": 730,
      "ഷ": 731,
      "സ": 732,
      "ാ": 733,
      "ി": 734,
      "ീ": 735,
      "ു": 736,
      "ൂ": 737,
      "െ": 738,
      "േ": 739,
      "ൊ": 740,
      "ോ": 741,
      "്": 742,
      "ർ": 743,
      "ං": 744,
      "ක": 745,
      "ජ": 746,
      "ට": 747,
      "ණ": 748,
      "ත": 749,
      "ද": 750,
      "න": 751,
      "ප": 752,
      "බ": 753,
      "ම": 754,
      "ය": 755,
      "ර": 756,
      "ල": 757,
      "ව": 758,
      "ස": 759,
      "හ": 760,
      "්": 761,
      "ා": 762,
      "ි": 763,
      "ු": 764,
      "ෙ": 765,
      "ේ": 766,
      "ො": 767,
      "ก": 768,
      "ง": 769,
      "จ": 770,
      "ต": 771,
      "ท": 772,
      "น": 773,
      "พ": 774,
      "ม": 775,
      "ย": 776,
      "ร": 777,
      "ล": 778,
      "ว": 779,
      "ส": 780,
      "ห": 781,
      "อ": 782,
      "ะ": 783,
      "ั": 784,
      "า": 785,
      "ิ": 786,
      "ุ": 787,
      "฿": 788,
      "เ": 789,
      "ไ": 790,
      "้": 791,
      "์": 792,
      "་": 793,
      "ག": 794,
      "ང": 795,
      "ད": 796,
      "ན": 797,
      "པ": 798,
      "བ": 799,
      "མ": 800,
      "འ": 801,
      "ར": 802,
      "ལ": 803,
      "ས": 804,
      "ི": 805,
      "ུ": 806,
      "ེ": 807,
      "ོ": 808,
      "ྱ": 809,
      "ྲ": 810,
      "်": 811,
      "ა": 812,
      "ი": 813,
      "ლ": 814,
      "ო": 815,
      "რ": 816,
      "ს": 817,
      "ប": 818,
      "ា": 819,
      "្": 820,
      "ḍ": 821,
      "Ḥ": 822,
      "ḥ": 823,
      "ḷ": 824,
      "ḻ": 825,
      "ṃ": 826,
      "ṅ": 827,
      "ṇ": 828,
      "ṉ": 829,
      "ṛ": 830,
      "ṟ": 831,
      "Ṣ": 832,
      "ṣ": 833,
      "Ṭ": 834,
      "ṭ": 835,
      "ạ": 836,
      "ấ": 837,
      "ẫ": 838,
      "ậ": 839,
      "ế": 840,
      "ệ": 841,
      "ị": 842,
      "ố": 843,
      "ộ": 844,
      "ụ": 845,
      "ἀ": 846,
      "ἄ": 847,
      "Ἀ": 848,
      "ἐ": 849,
      "ἔ": 850,
      "ἰ": 851,
      "Ἰ": 852,
      "ὐ": 853,
      "ὰ": 854,
      "ῆ": 855,
      "ῖ": 856,
      "ῦ": 857,
      "ῶ": 858,
      "​": 859,
      "‌": 860,
      "‍": 861,
      "‎": 862,
      "–": 863,
      "—": 864,
      "‘": 865,
      "’": 866,
      "“": 867,
      "”": 868,
      "†": 869,
      "•": 870,
      "′": 871,
      "‹": 872,
      "›": 873,
      "⁄": 874,
      "€": 875,
      "₹": 876,
      "↑": 877,
      "→": 878,
      "↔": 879,
      "↣": 880,
      "⇌": 881,
      "∂": 882,
      "∅": 883,
      "∆": 884,
      "∈": 885,
      "−": 886,
      "√": 887,
      "∞": 888,
      "∠": 889,
      "≈": 890,
      "≠": 891,
      "≡": 892,
      "≤": 893,
      "≥": 894,
      "⋅": 895,
      "▁": 896,
      "♠": 897,
      "♣": 898,
      "♦": 899,
      "♭": 900,
      "❄": 901,
      "⟨": 902,
      "⟩": 903,
      "の": 904,
      "ん": 905,
      "ア": 906,
      "イ": 907,
      "タ": 908,
      "マ": 909,
      "リ": 910,
      "ン": 911,
      "ー": 912,
      "一": 913,
      "三": 914,
      "中": 915,
      "京": 916,
      "人": 917,
      "代": 918,
      "会": 919,
      "元": 920,
      "六": 921,
      "加": 922,
      "北": 923,
      "十": 924,
      "南": 925,
      "台": 926,
      "史": 927,
      "名": 928,
      "和": 929,
      "四": 930,
      "国": 931,
      "國": 932,
      "園": 933,
      "地": 934,
      "坡": 935,
      "城": 936,
      "大": 937,
      "天": 938,
      "子": 939,
      "字": 940,
      "学": 941,
      "安": 942,
      "宗": 943,
      "家": 944,
      "寺": 945,
      "小": 946,
      "山": 947,
      "巴": 948,
      "市": 949,
      "平": 950,
      "年": 951,
      "式": 952,
      "拉": 953,
      "文": 954,
      "新": 955,
      "日": 956,
      "明": 957,
      "木": 958,
      "本": 959,
      "村": 960,
      "東": 961,
      "林": 962,
      "株": 963,
      "江": 964,
      "河": 965,
      "海": 966,
      "清": 967,
      "漢": 968,
      "王": 969,
      "田": 970,
      "町": 971,
      "社": 972,
      "空": 973,
      "立": 974,
      "行": 975,
      "西": 976,
      "道": 977,
      "郎": 978,
      "野": 979,
      "金": 980,
      "阿": 981,
      "館": 982,
      "马": 983,
      "高": 984,
      "ꢒ": 985,
      "대": 986,
      "무": 987,
      "정": 988,
      "": 989,
      "": 990,
      "": 991,
      "": 992,
      "": 993,
      "": 994,
      "": 995,
      "": 996,
      "﻿": 997,
      "￼": 998,
      "�": 999,
      "👑": 1000,
      "்க": 1001,
      "்த": 1002,
      "ம்": 1003,
      "ன்": 1004,
      "ல்": 1005,
      "▁ப": 1006,
      "்ட": 1007,
      "ப்": 1008,
      "▁க": 1009,
      "க்க": 1010,
      "▁ம": 1011,
      "ர்": 1012,
      "ும்": 1013,
      "ிய": 1014,
      "▁இ": 1015,
      "ப்ப": 1016,
      "▁த": 1017,
      "த்த": 1018,
      "▁வ": 1019,
      "▁அ": 1020,
      "ள்": 1021,
      "ில்": 1022,
      "ட்ட": 1023,
      "து": 1024,
      "ரு": 1025,
      "▁ச": 1026,
      "ந்த": 1027,
      "▁\n": 1028,
      "▁ந": 1029,
      "ின்": 1030,
      "ற்": 1031,
      "ைய": 1032,
      "ாக": 1033,
      "ங்க": 1034,
      "▁ஆ": 1035,
      "▁எ": 1036,
      "ற்ற": 1037,
      "டு": 1038,
      "ண்ட": 1039,
      "▁உ": 1040,
      "ில": 1041,
      "்ச": 1042,
      "ிற": 1043,
      "ிர": 1044,
      "ள்ள": 1045,
      "து.": 1046,
      "ிக": 1047,
      "ான": 1048,
      "ன்ற": 1049,
      "ுத": 1050,
      "ார்": 1051,
      "ுக": 1052,
      "=\"": 1053,
      "ர்க": 1054,
      "ிக்க": 1055,
      "▁ஒ": 1056,
      "ுக்க": 1057,
      "ரா": 1058,
      "ந்து": 1059,
      "ைக": 1060,
      "ுற": 1061,
      "டி": 1062,
      "ிரு": 1063,
      "ின": 1064,
      "ாவ": 1065,
      "ுவ": 1066,
      "▁1": 1067,
      "▁செ": 1068,
      "ur": 1069,
      "த்": 1070,
      "ப்பட்ட": 1071,
      "id": 1072,
      ">\n": 1073,
      "▁<": 1074,
      "ik": 1075,
      "oc": 1076,
      "▁தொ": 1077,
      "iki": 1078,
      "wiki": 1079,
      "a.": 1080,
      "doc": 1081,
      "▁பெ": 1082,
      "மை": 1083,
      "லை": 1084,
      "▁கா": 1085,
      ".\n": 1086,
      "▁(": 1087,
      "ரி": 1088,
      "▁வி": 1089,
      "ன்ப": 1090,
      "த்தில்": 1091,
      "▁கொ": 1092,
      "▁இரு": 1093,
      "▁இந்த": 1094,
      "ால்": 1095,
      "ளை": 1096,
      "ாட்ட": 1097,
      "ல்ல": 1098,
      "ச்ச": 1099,
      "டுக": 1100,
      "ட்ச": 1101,
      "▁போ": 1102,
      "▁மற்ற": 1103,
      "ய்": 1104,
      "ும்.": 1105,
      "ளில்": 1106,
      "▁ஒரு": 1107,
      "▁உள்ள": 1108,
      "ுட": 1109,
      "ார்.": 1110,
      "ார": 1111,
      "ம்ப": 1112,
      "▁இவ": 1113,
      "ன்ன": 1114,
      "ுள்ள": 1115,
      "▁2": 1116,
      "▁மற்றும்": 1117,
      "ிவ": 1118,
      "ஸ்": 1119,
      "ால": 1120,
      "மி": 1121,
      "ாத": 1122,
      "ின்ற": 1123,
      "ண்": 1124,
      "▁ஊ": 1125,
      "▁மு": 1126,
      "▁ஆக": 1127,
      "▁அவ": 1128,
      "ப்பட": 1129,
      "ழ்": 1130,
      "து.\n": 1131,
      "ற்க": 1132,
      "or": 1133,
      "▁கோ": 1134,
      "ti": 1135,
      "ப்பு": 1136,
      "க்": 1137,
      "▁என்ற": 1138,
      "ிட": 1139,
      "▁வெ": 1140,
      "டுத்த": 1141,
      "ச்": 1142,
      "ண்டு": 1143,
      "le": 1144,
      "று": 1145,
      "di": 1146,
      "குத": 1147,
      "லா": 1148,
      "tt": 1149,
      "pe": 1150,
      "தி": 1151,
      "▁அமை": 1152,
      "//": 1153,
      "ttp": 1154,
      "http": 1155,
      "://": 1156,
      "னர்": 1157,
      "org": 1158,
      "▁\"": 1159,
      "▁</": 1160,
      "tit": 1161,
      "ும்,": 1162,
      "https": 1163,
      "https://": 1164,
      "pedi": 1165,
      "org/": 1166,
      "cur": 1167,
      "மாக": 1168,
      "wikipedi": 1169,
      "a.org/": 1170,
      "wikipedia.org/": 1171,
      "wikipedia.org/wiki": 1172,
      "url": 1173,
      "id=": 1174,
      "ta.": 1175,
      "le=\"": 1176,
      "=\"https://": 1177,
      "▁id": 1178,
      "▁tit": 1179,
      "\">\n": 1180,
      "ta.wikipedia.org/wiki": 1181,
      "▁url": 1182,
      "?cur": 1183,
      "▁<doc": 1184,
      "doc>\n": 1185,
      "▁</doc>\n": 1186,
      "=\"https://ta.wikipedia.org/wiki": 1187,
      "▁id=\"": 1188,
      "▁title=\"": 1189,
      "▁url=\"https://ta.wikipedia.org/wiki": 1190,
      "?curid=": 1191,
      "▁url=\"https://ta.wikipedia.org/wiki?curid=": 1192,
      "ுக்கு": 1193,
      "ரை": 1194,
      "ையில்": 1195,
      "ட்சி": 1196,
      "ட்": 1197,
      "க்கு": 1198,
      "▁அத": 1199,
      "ர்கள்": 1200,
      "ைக்": 1201,
      "ளின்": 1202,
      "▁மே": 1203,
      "டை": 1204,
      "▁பொ": 1205,
      "வு": 1206,
      "ற்ப": 1207,
      "▁19": 1208,
      "▁பிர": 1209,
      "▁மா": 1210,
      "▁கு": 1211,
      "▁பா": 1212,
      "ித்த": 1213,
      "▁ஏ": 1214,
      "▁குற": 1215,
      "▁20": 1216,
      "▁தே": 1217,
      "ட்டு": 1218,
      "ான்": 1219,
      "மான": 1220,
      "▁முத": 1221,
      "ரிய": 1222,
      "ப்படுக": 1223,
      "ாள": 1224,
      "▁என்ப": 1225,
      "ங்கள்": 1226,
      "▁கொண்ட": 1227,
      "ரும்": 1228,
      "▁ஊரா": 1229,
      "▁என": 1230,
      "▁தமி": 1231,
      "▁வே": 1232,
      "வா": 1233,
      "ியில்": 1234,
      "யில்": 1235,
      "ன.": 1236,
      "த்தின்": 1237,
      "ிறது.": 1238,
      "▁செய": 1239,
      "ிப்ப": 1240,
      "▁இத": 1241,
      "▁அற": 1242,
      "ரச": 1243,
      "வி": 1244,
      "▁பய": 1245,
      "ங்கள": 1246,
      "▁திரு": 1247,
      "்கள்": 1248,
      "▁ஊராட்சி": 1249,
      "▁மூ": 1250,
      "▁பு": 1251,
      "வை": 1252,
      "▁நா": 1253,
      "▁கூ": 1254,
      "▁மக்க": 1255,
      "▁சே": 1256,
      "னை": 1257,
      "த்து": 1258,
      "▁வா": 1259,
      "ழு": 1260,
      "ூர்": 1261,
      "வே": 1262,
      "ம்,": 1263,
      "▁இது": 1264,
      "ியல்": 1265,
      "ையும்": 1266,
      "வர்": 1267,
      "த்தை": 1268,
      "வும்": 1269,
      "▁தொட": 1270,
      "▁பே": 1271,
      "தாக": 1272,
      "மா": 1273,
      "ிற்க": 1274,
      "▁ஜ": 1275,
      "▁பல": 1276,
      "▁ஆண்ட": 1277,
      "▁வழ": 1278,
      "ைக்க": 1279,
      "பு": 1280,
      "▁இந்திய": 1281,
      "கை": 1282,
      "வில்": 1283,
      "நில": 1284,
      "▁நில": 1285,
      "▁சு": 1286,
      "ிட்ட": 1287,
      "▁இய": 1288,
      "ர்த": 1289,
      "ந்துள்ள": 1290,
      "க்கோ": 1291,
      "ித": 1292,
      "ிகள்": 1293,
      "ண்ண": 1294,
      "▁மொ": 1295,
      "சிய": 1296,
      "ர்கள": 1297,
      "சு": 1298,
      "ிகள": 1299,
      "▁நீ": 1300,
      "ைகள்": 1301,
      "▁தமிழ்": 1302,
      "▁து": 1303,
      "ஞ்ச": 1304,
      "▁வெள": 1305,
      "▁அல்ல": 1306,
      "00": 1307,
      "ுகள்": 1308,
      "ாம": 1309,
      "கு": 1310,
      "ன்று": 1311,
      "ிலும்": 1312,
      "▁இர": 1313,
      "▁நிற": 1314,
      "ர்ந்த": 1315,
      "ாவட்ட": 1316,
      "மைய": 1317,
      "▁ஆம்": 1318,
      "▁தெ": 1319,
      "னர்.": 1320,
      "▁நட": 1321,
      "ியாக": 1322,
      "▁இட": 1323,
      "▁சிற": 1324,
      "▁ட": 1325,
      "ராக": 1326,
      "லி": 1327,
      "▁அமைந்துள்ள": 1328,
      "ுடன்": 1329,
      "ப்பாட்ட": 1330,
      "ர்வ": 1331,
      "ரோ": 1332,
      "பா": 1333,
      "▁பின்": 1334,
      "▁மாவட்ட": 1335,
      "ையின்": 1336,
      "▁நூ": 1337,
      "பெ": 1338,
      "▁201": 1339,
      "ிக்": 1340,
      "▁ஆகிய": 1341,
      "▁கரு": 1342,
      "நா": 1343,
      "▁உரு": 1344,
      "ற்று": 1345,
      "ங்கு": 1346,
      "▁அரச": 1347,
      "▁இருந்த": 1348,
      "ிரை": 1349,
      "ும்.\n": 1350,
      "▁பயன்ப": 1351,
      "ம்ம": 1352,
      "ய்ய": 1353,
      "ார்.\n": 1354,
      "▁தொகுத": 1355,
      "▁என்பது": 1356,
      "லக": 1357,
      "ியா": 1358,
      "ுறை": 1359,
      "ுத்": 1360,
      "▁ஆண்டு": 1361,
      "▁கி": 1362,
      "▁மீ": 1363,
      "கர": 1364,
      "▁பகுத": 1365,
      "சி": 1366,
      "▁அல்லது": 1367,
      "▁ஆகும்.": 1368,
      "ிறது.\n": 1369,
      "▁கண": 1370,
      "ுக்": 1371,
      "▁பிற": 1372,
      "▁ஐ": 1373,
      "ங்களில்": 1374,
      "▁தன": 1375,
      "ும்ப": 1376,
      "ற்கு": 1377,
      "▁இருக்க": 1378,
      "▁சம": 1379,
      "▁இல": 1380,
      "டிய": 1381,
      "▁வள": 1382,
      "லம்": 1383,
      "ிருந்து": 1384,
      "▁அம": 1385,
      "▁ஓ": 1386,
      "ல்க": 1387,
      "▁இவர்": 1388,
      "▁ய": 1389,
      "▁மக்கள்": 1390,
      "ிருந்த": 1391,
      "சை": 1392,
      "ியின்": 1393,
      "▁சி": 1394,
      "▁மிக": 1395,
      "யில": 1396,
      "ாம்": 1397,
      "ிற்கு": 1398,
      "ணை": 1399,
      "▁அள": 1400,
      "ொரு": 1401,
      "▁விள": 1402,
      "▁பி": 1403,
      "▁போன்ற": 1404,
      "ெடு": 1405,
      "ாக்க": 1406,
      "▁கோயில்": 1407,
      "வாக": 1408,
      "ுகள": 1409,
      "▁இக்கோ": 1410,
      "▁கட": 1411,
      "ணி": 1412,
      "▁உய": 1413,
      "▁என்று": 1414,
      "an": 1415,
      "▁பொரு": 1416,
      "▁பூ": 1417,
      "▁அதிக": 1418,
      "ைகள": 1419,
      "▁பெற்ற": 1420,
      "▁தலை": 1421,
      "ரிக்க": 1422,
      "ரவ": 1423,
      "ருக": 1424,
      "▁முதல்": 1425,
      "▁ஹ": 1426,
      "▁இருந்து": 1427,
      "▁சில": 1428,
      "▁வர": 1429,
      "ப்பட்டுள்ள": 1430,
      "ர்த்த": 1431,
      "ையை": 1432,
      "னால்": 1433,
      "ஆம்": 1434,
      "மே": 1435,
      "▁(\"": 1436,
      "ின்றன.": 1437,
      "),": 1438,
      "▁பட்ட": 1439,
      "▁கால": 1440,
      "▁செய்த": 1441,
      "ஸ்ட": 1442,
      "▁என்ன": 1443,
      "▁அழ": 1444,
      "▁சட்ட": 1445,
      "ப்பின": 1446,
      "▁செய்ய": 1447,
      "▁மேல": 1448,
      "ரம்": 1449,
      "▁ல": 1450,
      "▁குறிப்ப": 1451,
      "▁கிர": 1452,
      "ரின்": 1453,
      "து,": 1454,
      "▁7": 1455,
      "ரில்": 1456,
      "்வ": 1457,
      "ிரைப்பட": 1458,
      "▁வீ": 1459,
      "க்கிய": 1460,
      "▁தோ": 1461,
      "ிக்கும்": 1462,
      "நாட்ட": 1463,
      "▁பெய": 1464,
      "▁கீ": 1465,
      "ாய": 1466,
      "▁200": 1467,
      "வத": 1468,
      "▁கட்ட": 1469,
      "▁ர": 1470,
      "ியை": 1471,
      "போ": 1472,
      "ப்படும்": 1473,
      "▁பட": 1474,
      "ப்பட்டது.": 1475,
      "ழி": 1476,
      "▁3": 1477,
      "ிலிருந்து": 1478,
      "▁இற": 1479,
      "ர்க்க": 1480,
      "ிருக்க": 1481,
      "ாண்ட": 1482,
      "பி": 1483,
      "ேச": 1484,
      "லாம்": 1485,
      "லில்": 1486,
      "ையாக": 1487,
      "▁பயன்படுத்த": 1488,
      "▁சூ": 1489,
      "▁உள்ளது.": 1490,
      "▁இல்": 1491,
      "▁போட்ட": 1492,
      "▁id=\"3": 1493,
      "▁url=\"https://ta.wikipedia.org/wiki?curid=3": 1494,
      "ர்ச்ச": 1495,
      "▁நிறுவ": 1496,
      "▁தீ": 1497,
      "கா": 1498,
      "▁காண": 1499,
      "▁நி": 1500,
      "▁என்னும்": 1501,
      "மன்ற": 1502,
      "பட்ட": 1503,
      "▁id=\"2": 1504,
      "▁url=\"https://ta.wikipedia.org/wiki?curid=2": 1505,
      "ிம": 1506,
      "▁நோ": 1507,
      "ாவின்": 1508,
      "▁உட": 1509,
      "▁ஒன்ற": 1510,
      "டிவ": 1511,
      "தை": 1512,
      "ரண": 1513,
      "▁சொ": 1514,
      "ினை": 1515,
      "▁ஏற்ப": 1516,
      "ங்களை": 1517,
      "த்திர": 1518,
      "லிய": 1519,
      "விய": 1520,
      "▁நே": 1521,
      "ி,": 1522,
      "▁முக்க": 1523,
      "▁வெளிய": 1524,
      "ண்கள்": 1525,
      "ப்படுகிறது.": 1526,
      "▁தொடர்": 1527,
      "ேய": 1528,
      "படி": 1529,
      "டித்த": 1530,
      "ழ்க": 1531,
      "▁ஈ": 1532,
      "ர்ம": 1533,
      "ன.\n": 1534,
      "ர்.": 1535,
      "ர்களின்": 1536,
      "▁id=\"1": 1537,
      "▁url=\"https://ta.wikipedia.org/wiki?curid=1": 1538,
      "▁ரா": 1539,
      "ழக": 1540,
      "▁பத": 1541,
      "ப்பா": 1542,
      "▁கல": 1543,
      "▁கூற": 1544,
      "▁பொது": 1545,
      "▁அண": 1546,
      "▁-": 1547,
      "▁மெ": 1548,
      "த்திய": 1549,
      "▁அட": 1550,
      "த்துவ": 1551,
      "▁நகர": 1552,
      "▁மொத்த": 1553,
      "▁முக்கிய": 1554,
      "▁சீ": 1555,
      "▁சா": 1556,
      "ுடிய": 1557,
      "ளி": 1558,
      "ிகளில்": 1559,
      "▁உறு": 1560,
      "▁கட்டு": 1561,
      "▁திரைப்பட": 1562,
      "டுப்பாட்ட": 1563,
      "ரே": 1564,
      "▁பர": 1565,
      "▁மாத": 1566,
      "▁கே": 1567,
      "▁தொகை": 1568,
      "ரது": 1569,
      "ல்ப": 1570,
      "்கள": 1571,
      "▁அவர்": 1572,
      "▁மக்கள": 1573,
      "▁18": 1574,
      "ாவில்": 1575,
      "▁கொண்டுள்ள": 1576,
      "▁உருவா": 1577,
      "▁குழ": 1578,
      "▁தமிழ்நாட்ட": 1579,
      "▁நடை": 1580,
      "ந்திர": 1581,
      "▁துடுப்பாட்ட": 1582,
      "▁உலக": 1583,
      "▁சேர்ந்த": 1584,
      "▁நூற்ற": 1585,
      "▁முன்ன": 1586,
      "ங்": 1587,
      "▁நிக": 1588,
      "னி": 1589,
      "ுவத": 1590,
      "வற்ற": 1591,
      "▁மேலும்": 1592,
      "▁ஆவ": 1593,
      "▁4": 1594,
      "▁சோ": 1595,
      "மீ": 1596,
      "்த்த": 1597,
      "ப்பத": 1598,
      "ஷ்": 1599,
      "▁வரை": 1600,
      "ிக்கு": 1601,
      "ற்றி": 1602,
      "▁அடி": 1603,
      "▁பாட": 1604,
      "ப்படுத்த": 1605,
      "ிவு": 1606,
      "▁வழங்க": 1607,
      "▁பண": 1608,
      "▁அக": 1609,
      "சா": 1610,
      "▁முற": 1611,
      "ையான": 1612,
      "▁வந்த": 1613,
      "ர்,": 1614,
      "ருக்கு": 1615,
      "▁நிறுவன": 1616,
      "▁கல்": 1617,
      "ெரிக்க": 1618,
      "▁5": 1619,
      "am": 1620,
      "னர்.\n": 1621,
      "ழுத": 1622,
      "ங்கில": 1623,
      "திர": 1624,
      "க்கப்பட்ட": 1625,
      "த்திற்கு": 1626,
      "▁ஆண்டில்": 1627,
      "▁வக": 1628,
      "வெ": 1629,
      "ற்றிய": 1630,
      "ைகளை": 1631,
      "▁பெரு": 1632,
      "▁மன": 1633,
      "3\"": 1634,
      "2\"": 1635,
      "ப்பின்": 1636,
      "ின்றனர்.": 1637,
      "4\"": 1638,
      "▁பெரும்": 1639,
      "▁மக": 1640,
      "6\"": 1641,
      ":\n": 1642,
      "ன்,": 1643,
      "1\"": 1644,
      "8\"": 1645,
      "7\"": 1646,
      "5\"": 1647,
      "on": 1648,
      "er": 1649,
      "▁உறுப்பின": 1650,
      "19": 1651,
      "▁அமெரிக்க": 1652,
      "▁நாட்ட": 1653,
      "யா": 1654,
      "▁தி": 1655,
      "மு": 1656,
      "▁இரா": 1657,
      "▁அந்த": 1658,
      "ினார்.": 1659,
      "▁மன்ற": 1660,
      "▁சிவ": 1661,
      "திய": 1662,
      "at": 1663,
      "ுறையின்": 1664,
      "ாவது": 1665,
      "▁இக்கோயில்": 1666,
      "▁காரண": 1667,
      "ருட": 1668,
      "ட்டை": 1669,
      "▁இதன்": 1670,
      "▁மாநில": 1671,
      "வர": 1672,
      "▁வேண்ட": 1673,
      "ெய": 1674,
      "▁குறை": 1675,
      "ல்,": 1676,
      "ப்படுகிறது.\n": 1677,
      "ப்பாட்டில்": 1678,
      "ம்மன்": 1679,
      "▁நூற்றாண்ட": 1680,
      "க்கூ": 1681,
      "ர்களை": 1682,
      "▁இத்த": 1683,
      "▁முதன்": 1684,
      "ar": 1685,
      "▁எழு": 1686,
      "ய்வ": 1687,
      "▁பின்னர்": 1688,
      "▁திர": 1689,
      "▁வகை": 1690,
      "▁வட": 1691,
      "▁வை": 1692,
      "▁வட்ட": 1693,
      "க்கும்": 1694,
      "▁நெ": 1695,
      "al": 1696,
      "0\"": 1697,
      "ஸ்த": 1698,
      "ப்போ": 1699,
      "ுடைய": 1700,
      "க்கம்": 1701,
      "்கு": 1702,
      "மும்": 1703,
      "▁நாட": 1704,
      "▁மூல": 1705,
      "ொண்ட": 1706,
      "ாலும்": 1707,
      "▁எழுத": 1708,
      "▁அமைப்ப": 1709,
      "கவ": 1710,
      "▁சட்டமன்ற": 1711,
      "லைக்க": 1712,
      "9\"": 1713,
      "▁உட்": 1714,
      "▁அறிவ": 1715,
      "நாடு": 1716,
      "▁தொழ": 1717,
      "லை.": 1718,
      "்ட்": 1719,
      "ுத்த": 1720,
      "ிக்கப்பட்ட": 1721,
      "்ச்ச": 1722,
      "▁கணக்க": 1723,
      "▁மரு": 1724,
      "▁சார்": 1725,
      "ைப்": 1726,
      "ட்டி": 1727,
      "▁உண": 1728,
      "in": 1729,
      "தா": 1730,
      "ுகளை": 1731,
      "ிரிய": 1732,
      "ைச்": 1733,
      "▁அன": 1734,
      "▁6": 1735,
      "▁மூலம்": 1736,
      "▁தொகுதிக்கும்": 1737,
      "▁தமிழ": 1738,
      "▁பேரும்": 1739,
      "▁நடைபெ": 1740,
      "▁ஊராட்சி,": 1741,
      "▁கொண்டு": 1742,
      "ணம்": 1743,
      "ர்களில்": 1744,
      "▁ஆனால்": 1745,
      "▁புத": 1746,
      "ின்றது.": 1747,
      "ுகளில்": 1748,
      "ிகளை": 1749,
      "▁வளர்ச்ச": 1750,
      "ந்": 1751,
      "▁தனது": 1752,
      "ுக்கும்": 1753,
      "▁உத": 1754,
      "▁அமைந்துள்ளது.": 1755,
      "ங்கிய": 1756,
      "ோர்": 1757,
      "▁பழ": 1758,
      "ற்றில்": 1759,
      "றை": 1760,
      "\")": 1761,
      "ார்கள்": 1762,
      "ாகும்.": 1763,
      "▁விளைய": 1764,
      "▁மாவட்டத்தில்": 1765,
      "ம்பர்": 1766,
      "வ்": 1767,
      "ழ்க்க": 1768,
      "▁வடிவ": 1769,
      "ையே": 1770,
      "▁இரண்ட": 1771,
      "▁தூ": 1772,
      "ோக": 1773,
      "த்தி": 1774,
      "▁அதன்": 1775,
      "▁2011": 1776,
      "▁இணை": 1777,
      "▁தன்": 1778,
      "▁தா": 1779,
      "▁மொழ": 1780,
      "▁இரண்டு": 1781,
      "▁P": 1782,
      "▁நிர்வ": 1783,
      "▁மாற்ற": 1784,
      "னா": 1785,
      "▁மல": 1786,
      "ch": 1787,
      "கோ": 1788,
      "ைகளில்": 1789,
      "▁199": 1790,
      "▁முதல": 1791,
      "யிலில்": 1792,
      "கால": 1793,
      "வர்கள்": 1794,
      "▁தகவ": 1795,
      "▁மர": 1796,
      "டும்": 1797,
      "▁அனை": 1798,
      "ங்கி": 1799,
      "ராய": 1800,
      "▁நாடுக": 1801,
      "ல்கள்": 1802,
      "க்கி": 1803,
      "ானிய": 1804,
      "▁அழைக்க": 1805,
      "▁கண்ட": 1806,
      "செ": 1807,
      "ப்பெ": 1808,
      "ருவ": 1809,
      "▁டி": 1810,
      "ும": 1811,
      "▁எதிர": 1812,
      "▁அல": 1813,
      "▁வருக": 1814,
      "▁பெரிய": 1815,
      "தேச": 1816,
      "கம்": 1817,
      "தாகும்.": 1818,
      "▁முறை": 1819,
      "▁எண்ண": 1820,
      "▁திட்ட": 1821,
      "ரம்ப": 1822,
      "னின்": 1823,
      "▁விர": 1824,
      "▁தமிழ்நாடு": 1825,
      "▁இலங்க": 1826,
      "▁கோயில": 1827,
      "த்தொ": 1828,
      "▁குட": 1829,
      "ித்து": 1830,
      "40": 1831,
      "▁பெரும்ப": 1832,
      "▁கிட": 1833,
      "▁எடுத்த": 1834,
      "ப்பட்டு": 1835,
      "▁தேர்ந்த": 1836,
      "ங்களின்": 1837,
      "ையாள": 1838,
      "வும்,": 1839,
      "▁இக்கோயிலில்": 1840,
      "கி": 1841,
      "▁அடிப்பட": 1842,
      "மையான": 1843,
      "வர்.": 1844,
      "றிய": 1845,
      "▁கொள்ள": 1846,
      "▁உள்ளன.": 1847,
      "▁துடுப்பாட்டப்": 1848,
      "ள்க": 1849,
      "ினால்": 1850,
      "▁கை": 1851,
      "▁அது": 1852,
      "▁,": 1853,
      "ையம்": 1854,
      "ிறார்.": 1855,
      "▁விரு": 1856,
      "▁பெற": 1857,
      "▁தேசிய": 1858,
      "வான": 1859,
      "ாட்டு": 1860,
      "en": 1861,
      "▁பெண்கள்": 1862,
      "▁பரி": 1863,
      "▁பார": 1864,
      "லின்": 1865,
      "சிரிய": 1866,
      "ியம்": 1867,
      "▁8": 1868,
      "லாம்.": 1869,
      "டுக்க": 1870,
      "▁இவ்வ": 1871,
      "ுட்": 1872,
      "▁சட்டமன்றத்": 1873,
      "வது": 1874,
      "▁இந்து": 1875,
      "▁இன": 1876,
      "ாகும்.\n": 1877,
      "▁மேற்க": 1878,
      "▁பாத": 1879,
      "மாகும்.": 1880,
      "20": 1881,
      "ம்.": 1882,
      "50": 1883,
      "வீ": 1884,
      "▁போது": 1885,
      "ரக": 1886,
      "▁கிராம": 1887,
      "வேறு": 1888,
      "ந்தை": 1889,
      "▁படி": 1890,
      "ஃப": 1891,
      "▁அவரது": 1892,
      "▁தேர்ந்தெடு": 1893,
      "ேயே": 1894,
      "ண்ப": 1895,
      "▁திற": 1896,
      "டுத": 1897,
      "▁உருவாக்க": 1898,
      "றி": 1899,
      "▁தொக": 1900,
      "ப்பட்டுள்ளது.\n": 1901,
      "ேற்ற": 1902,
      "ரீ": 1903,
      "▁இண": 1904,
      "▁G": 1905,
      "ருக்க": 1906,
      "ியூ": 1907,
      "▁வரலா": 1908,
      "▁பள்ள": 1909,
      "ப்பிர": 1910,
      "▁198": 1911,
      "வைத்": 1912,
      "திப்ப": 1913,
      "வ்வ": 1914,
      "ுகிறது.": 1915,
      "நிலை": 1916,
      "▁கொண்டுள்ளது.": 1917,
      "▁ஆத": 1918,
      "வில": 1919,
      "ிடம்": 1920,
      "▁கணக்கெடு": 1921,
      "▁வில": 1922,
      "▁தர": 1923,
      "▁நேர": 1924,
      "வன": 1925,
      "▁மின்": 1926,
      "▁இயக்க": 1927,
      "▁மிகவும்": 1928,
      "▁பால": 1929,
      "ளம்": 1930,
      "ோடு": 1931,
      "\",": 1932,
      "▁பல்": 1933,
      "▁புக": 1934,
      "தும்": 1935,
      "▁வய": 1936,
      "▁பட்டியல்": 1937,
      "ஸ்க": 1938,
      "த்துக்க": 1939,
      "ொள்ள": 1940,
      "▁வச": 1941,
      "▁பல்க": 1942,
      "கர்": 1943,
      "▁நான": 1944,
      "▁கிழ": 1945,
      "ாண": 1946,
      "▁கல்ல": 1947,
      ")\n": 1948,
      "▁நிலை": 1949,
      "▁இவை": 1950,
      "தால்": 1951,
      "▁மாவட்டம்,": 1952,
      "ிறது": 1953,
      "ந்ந": 1954,
      "புரம்": 1955,
      "ானது": 1956,
      "ாகப்": 1957,
      "ay": 1958,
      "▁வளர்ச்சி": 1959,
      "ழை": 1960,
      "முறை": 1961,
      "▁மூன்று": 1962,
      "ின்றன.\n": 1963,
      "76": 1964,
      "லர்": 1965,
      "▁செல்ல": 1966,
      "▁தேவ": 1967,
      "ப்படி": 1968,
      "▁முதன்மை": 1969,
      "ிலுள்ள": 1970,
      "▁வாழ்": 1971,
      "▁சிற்ற": 1972,
      "ப்படுகின்றன.": 1973,
      "▁9": 1974,
      "▁10": 1975,
      "▁ஆகியவற்ற": 1976,
      "ோது": 1977,
      "நிலைய": 1978,
      "ப்படு": 1979,
      "ிகளைக்": 1980,
      "▁உட்பட்ட": 1981,
      "75": 1982,
      "திர்": 1983,
      "▁வேறு": 1984,
      "வர்கள": 1985,
      "▁கணக்கெடுப்பின்": 1986,
      "ைத்": 1987,
      "ட்சியில்": 1988,
      "▁தவ": 1989,
      "▁மக்களவைத்": 1990,
      "ப்பகுத": 1991,
      "▁ஆவார்.": 1992,
      "▁பேர": 1993,
      "▁மனித": 1994,
      "இல்": 1995,
      "ிலும்,": 1996,
      "ுவா": 1997,
      "▁C": 1998,
      "▁ஸ்": 1999,
      "ன்க": 2000,
      "டுகள்": 2001,
      "ிரி": 2002,
      "▁பொருள": 2003,
      "▁தமிழ்நாட்டில்": 2004,
      "▁மொழி": 2005,
      "▁இங்கு": 2006,
      "பர்": 2007,
      "▁கீழ்": 2008,
      "▁என்றும்": 2009,
      "பர": 2010,
      "▁நடித்த": 2011,
      "▁எனும்": 2012,
      "ச்சு": 2013,
      "ா,": 2014,
      "th": 2015,
      "▁தரவ": 2016,
      "ஜ்": 2017,
      "ான்.": 2018,
      "▁தகவல்": 2019,
      "▁தாக்க": 2020,
      "73": 2021,
      "▁ஊரில்": 2022,
      "▁குறிப்பிட": 2023,
      "18": 2024,
      "▁ஆண்கள்": 2025,
      "▁பூசை": 2026,
      "10": 2027,
      "▁2015": 2028,
      "000": 2029,
      "78": 2030,
      "▁S": 2031,
      "▁முக": 2032,
      "▁காட்ட": 2033,
      "▁ஒன்று": 2034,
      "▁வாய்": 2035,
      "த்திற்க": 2036,
      "72": 2037,
      "▁வான": 2038,
      "ன்னை": 2039,
      "ையா": 2040,
      "▁மருத்துவ": 2041,
      "▁பாது": 2042,
      "▁தொடர்ப": 2043,
      "ட்டர்": 2044,
      "▁வெளிவ": 2045,
      "70": 2046,
      "▁பிறந்த": 2047,
      "ுக்கான": 2048,
      "▁சந்த": 2049,
      "▁கூட்ட": 2050,
      "ார்,": 2051,
      "▁.": 2052,
      "74": 2053,
      "▁பங்க": 2054,
      "▁அறிய": 2055,
      "▁வெப்ப": 2056,
      "படி,": 2057,
      "ையும்,": 2058,
      "வில்லை.": 2059,
      "▁முடிய": 2060,
      "▁தமிழ்நாட்டின்": 2061,
      "ிலோ": 2062,
      "▁கருத": 2063,
      "▁நிர்வக": 2064,
      "னிய": 2065,
      "▁மட்டு": 2066,
      "ாடு": 2067,
      "▁உற": 2068,
      "ப்பு:": 2069,
      "ற்ச": 2070,
      "▁இவற்றில்": 2071,
      "ாமல்": 2072,
      "▁நிகழ": 2073,
      "ப்பி": 2074,
      "▁நு": 2075,
      "த்துக்கு": 2076,
      "▁'": 2077,
      "▁மொத்தம்": 2078,
      "▁[": 2079,
      "▁கோயில்\n": 2080,
      "▁சங்க": 2081,
      "லைக்கழக": 2082,
      "▁புதிய": 2083,
      "முற": 2084,
      "யம்": 2085,
      "ார்கள்.": 2086,
      "es": 2087,
      "▁கோயில்\">\n": 2088,
      "ாள்": 2089,
      "▁பெயர்": 2090,
      "▁இதில்": 2091,
      "▁தொழில்": 2092,
      "▁15": 2093,
      "ாரத்தில்": 2094,
      "▁ஆங்கில": 2095,
      "▁196": 2096,
      "டிக்க": 2097,
      "▁படை": 2098,
      "ண்ம": 2099,
      "▁ஜெ": 2100,
      "ந்திய": 2101,
      "▁தொலை": 2102,
      "▁சாத": 2103,
      "▁பல்வேறு": 2104,
      "சோ": 2105,
      "▁நடைபெற": 2106,
      "▁செல": 2107,
      "▁நடக்க": 2108,
      "▁மாதம்": 2109,
      "விழ": 2110,
      "தே": 2111,
      "ப்பை": 2112,
      "▁ஆரம்ப": 2113,
      "ப்பில்": 2114,
      "ாக்": 2115,
      "வராக": 2116,
      "ிச்ச": 2117,
      "\"),": 2118,
      "ரால்": 2119,
      "வன்": 2120,
      "வரி": 2121,
      "▁பொதுவாக": 2122,
      "▁12": 2123,
      "▁இருக்கும்": 2124,
      "ிக்கப்படுகிறது.\n": 2125,
      "▁திருக்கோ": 2126,
      "லாள": 2127,
      "▁கட்டுப்பாட்டில்": 2128,
      "ய்வு": 2129,
      "▁அர": 2130,
      "▁பல்கலைக்கழக": 2131,
      "▁எல்ல": 2132,
      "▁கலந்து": 2133,
      "▁16": 2134,
      "▁ஆற்ற": 2135,
      "▁title=\"க": 2136,
      "▁இக்க": 2137,
      "ியான": 2138,
      "▁திரும": 2139,
      "பட": 2140,
      "நீ": 2141,
      "▁வரு": 2142,
      "▁கீழ்க்க": 2143,
      "▁விட": 2144,
      "▁ஆய": 2145,
      "▁அறநிலைய": 2146,
      "▁தேர்ந்தெடுக்க": 2147,
      "ம்\n": 2148,
      "சன்": 2149,
      "▁இவர்களில்": 2150,
      "▁குடும்ப": 2151,
      "▁தற்ப": 2152,
      "▁ஒவ்வ": 2153,
      "ல்கள": 2154,
      "காலப்": 2155,
      "▁எந்த": 2156,
      "வாத": 2157,
      "லாக": 2158,
      "▁இவ்": 2159,
      "ிலேயே": 2160,
      "▁உயிர": 2161,
      "▁டெ": 2162,
      "▁நூற்றாண்டைச்": 2163,
      "ில்லிய": 2164,
      "ரான": 2165,
      "▁அங்க": 2166,
      "க்கூடிய": 2167,
      "▁இல்ல": 2168,
      "43": 2169,
      "ுதல்": 2170,
      "ிகளின்": 2171,
      "is": 2172,
      "▁குடிய": 2173,
      "▁அரசு": 2174,
      "நாத": 2175,
      "▁அரு": 2176,
      "▁கி.": 2177,
      "வின்": 2178,
      "த்துறையின்": 2179,
      "ள்ளி": 2180,
      "▁மன்ன": 2181,
      "▁ஓர்": 2182,
      "ண்டும்": 2183,
      "▁நிகழ்": 2184,
      "டைந்த": 2185,
      "▁கன": 2186,
      "▁வகைப்பாட்டில்": 2187,
      "▁துறையின்": 2188,
      "▁கோயிலாகும்.\n": 2189,
      "ர்களைத்": 2190,
      "ற்காக": 2191,
      "▁ஆன": 2192,
      "வரும்": 2193,
      "▁தொகுக்க": 2194,
      "ின்றது.\n": 2195,
      "நாய": 2196,
      "ுள்ளார்.": 2197,
      "ram": 2198,
      "விட": 2199,
      "சன": 2200,
      "ஸ்ட்": 2201,
      "லோ": 2202,
      "12": 2203,
      "▁நிர்வகிக்கப்படுகிறது.\n": 2204,
      "▁முடி": 2205,
      "▁காரணமாக": 2206,
      "ென": 2207,
      "▁இச": 2208,
      "ின்படி": 2209,
      "▁வீர": 2210,
      "▁நோய": 2211,
      "ுகிறது.\n": 2212,
      "▁அறநிலையத்துறையின்": 2213,
      "ீர": 2214,
      "ங்கள்,": 2215,
      "ியம்மன்": 2216,
      "க்த": 2217,
      "ங்களுக்கு": 2218,
      "▁கல்லூ": 2219,
      "த்துடன்": 2220,
      "30": 2221,
      "▁சேர்ந்தது.\n": 2222,
      "▁A": 2223,
      "▁அன்று": 2224,
      "▁அருக": 2225,
      "▁விளை": 2226,
      "்டோ": 2227,
      "▁திருக்கோயில்": 2228,
      "▁இவரது": 2229,
      "▁ஒருகாலப்": 2230,
      "▁இசை": 2231,
      "தாம்": 2232,
      "▁கணக்கெடுப்பின்படி,": 2233,
      "▁நக": 2234,
      "ாளர்": 2235,
      "la": 2236,
      "▁வழி": 2237,
      "▁அவர்கள்": 2238,
      "▁இந்ந": 2239,
      "▁அமைந்த": 2240,
      "▁புல": 2241,
      "ுள்": 2242,
      "▁ஆய்வ": 2243,
      "மார்": 2244,
      "▁சிற்றூ": 2245,
      "▁ஆகும்.\n": 2246,
      "▁செயல்ப": 2247,
      "▁வண": 2248,
      "ால்,": 2249,
      "▁மண": 2250,
      "மாள்": 2251,
      "39": 2252,
      "ப்பட்டுள்ளது.": 2253,
      "ண்ட்": 2254,
      "ூக": 2255,
      "▁இறுத": 2256,
      "▁பகுதியில்": 2257,
      "▁நம்ப": 2258,
      "▁கலை": 2259,
      "15": 2260,
      "பிர": 2261,
      "ுட்ப": 2262,
      "▁அவை": 2263,
      "16": 2264,
      "ளா": 2265,
      "▁கீழ்க்கண்ட": 2266,
      "த்தின": 2267,
      "48": 2268,
      "▁2011ஆம்": 2269,
      "38": 2270,
      "ஃப்": 2271,
      "▁பற்றிய": 2272,
      "ட்சிய": 2273,
      "▁பிறகு": 2274,
      "▁மோ": 2275,
      "தில்": 2276,
      "ங்கா": 2277,
      "▁ஊரக": 2278,
      "ப்ட": 2279,
      "79": 2280,
      "▁தொடங்க": 2281,
      "▁சமய": 2282,
      "anch": 2283,
      "▁அனு": 2284,
      "▁வித": 2285,
      "▁முதன்மைத்": 2286,
      "▁ஊராட்சியில்": 2287,
      "ர்ட": 2288,
      "▁ஆறு": 2289,
      "▁தொகுதிகளைக்": 2290,
      "▁2015ஆம்": 2291,
      "பே": 2292,
      "▁கண்டு": 2293,
      "▁தெரி": 2294,
      "▁தொடர்ந்து": 2295,
      "▁செய்து": 2296,
      "▁ஆண்டுத்": 2297,
      "னே": 2298,
      "▁துற": 2299,
      "▁உறுப்பினர்களைத்": 2300,
      "▁மன்றத்": 2301,
      "▁ஊராட்சி\n": 2302,
      "ayat": 2303,
      "ர்க்": 2304,
      "▁ஊராட்சி\">\n": 2305,
      "25": 2306,
      "▁தொகுக்கப்பட்டுள்ளது.\n": 2307,
      "▁பட்டியல்:\n": 2308,
      "▁கல்வி": 2309,
      "ளோ": 2310,
      "ஷ்ண": 2311,
      "▁இந்தியாவின்": 2312,
      "▁Gram": 2313,
      "▁இம்ம": 2314,
      "▁உட்பட்டதாகும்.": 2315,
      "▁போல": 2316,
      "▁மைய": 2317,
      "▁Panch": 2318,
      "▁வல": 2319,
      "▁Panchayat": 2320,
      "▁காலத்தில்": 2321,
      "▁தேர்ந்தெடுக்கின்றனர்.": 2322,
      "▁தோன்ற": 2323,
      "▁அரசியல்": 2324,
      "▁ஊராட்சித்": 2325,
      "▁அனைத்து": 2326,
      "▁Panchayat\"),": 2327,
      "▁பிரதேச": 2328,
      "▁மாக": 2329,
      "▁தரவின்படி": 2330,
      "▁மண்ட": 2331,
      "▁சிற்றூர்களின்": 2332,
      "▁உள்ளனர்.\n": 2333,
      ")\">\n": 2334,
      "க்கார": 2335,
      "ங்காவ": 2336,
      "ாட": 2337,
      "வாறு": 2338,
      "▁பரம்ப": 2339,
      "▁மட்ட": 2340,
      "▁மாற": 2341,
      "▁எதிர்": 2342,
      "▁செயல்": 2343,
      "ரிம": 2344,
      "ட்க": 2345,
      "▁குறிக்க": 2346,
      "▁நிலைய": 2347,
      "▁சொல்ல": 2348,
      "த்தா": 2349,
      "▁செல்": 2350,
      "▁உற்ப": 2351,
      "▁வட்டாரத்தில்": 2352,
      "▁ஒவ்வொரு": 2353,
      "ுகளின்": 2354,
      "ப்படும்.": 2355,
      "ுவர": 2356,
      "லும்": 2357,
      "▁தேர்த": 2358,
      "▁தான்": 2359,
      "ண்க": 2360,
      "ங்களும்": 2361,
      "▁பீ": 2362,
      "ைகளின்": 2363,
      "35": 2364,
      "▁வெளிவந்த": 2365,
      "▁வரைய": 2366,
      "ாரண": 2367,
      "▁நவ": 2368,
      "யாரி": 2369,
      "▁சார்ந்த": 2370,
      "சே": 2371,
      "▁பார்": 2372,
      "▁அடுத்த": 2373,
      "மொ": 2374,
      "ர்ந்து": 2375,
      "ன்பதாம்": 2376,
      "ற்கான": 2377,
      "▁திருவிழ": 2378,
      "▁சென்ற": 2379,
      "▁பாக": 2380,
      "▁இள": 2381,
      "▁இடை": 2382,
      "ிப்பு": 2383,
      "▁புற": 2384,
      "ாரம்": 2385,
      "▁நான்கு": 2386,
      "ம்பெ": 2387,
      "▁(த": 2388,
      "ic": 2389,
      "▁பாதுகா": 2390,
      "ளவு": 2391,
      "ரல்": 2392,
      "▁கடை": 2393,
      "▁பிரிவ": 2394,
      "▁விளையாட்ட": 2395,
      "▁ஏற்ற": 2396,
      "▁தயாரி": 2397,
      "49": 2398,
      "▁ஷ": 2399,
      "▁மட்டுமே": 2400,
      "பாடு": 2401,
      "முக": 2402,
      "▁சிறந்த": 2403,
      "▁தய": 2404,
      "▁வழக்க": 2405,
      "▁பத்தொ": 2406,
      "தான": 2407,
      "▁நாள்": 2408,
      "ரிட": 2409,
      "▁சமூக": 2410,
      "ிலான": 2411,
      "▁புது": 2412,
      "ப்பிய": 2413,
      "தம்": 2414,
      "டுகள": 2415,
      "45": 2416,
      "▁யா": 2417,
      "▁கிலோ": 2418,
      "▁பத்தொன்பதாம்": 2419,
      "துர": 2420,
      "ர்களுக்கு": 2421,
      "▁அல்லாத": 2422,
      "▁அவற்ற": 2423,
      "ுக்கள்": 2424,
      "▁கொள்க": 2425,
      "▁முய": 2426,
      "▁பரம்பரை": 2427,
      "▁தன்ன": 2428,
      "▁பரவ": 2429,
      "▁குறிப்பிட்ட": 2430,
      "▁திருவ": 2431,
      "▁முழு": 2432,
      "▁போட்டிய": 2433,
      "ஸ்.": 2434,
      "ிர்": 2435,
      "▁195": 2436,
      "▁சித்த": 2437,
      "▁M": 2438,
      "▁பொறு": 2439,
      "ராச": 2440,
      "ாகவும்": 2441,
      "▁மேற்ப": 2442,
      "▁எழுதிய": 2443,
      "▁தீவ": 2444,
      "ரிச": 2445,
      "▁பார்க்க": 2446,
      "ீன்": 2447,
      "▁யூ": 2448,
      "▁புர": 2449,
      "▁ஒப்ப": 2450,
      "▁புத்த": 2451,
      "மெ": 2452,
      "▁முன்": 2453,
      "▁எழுத்த": 2454,
      "ைகள்,": 2455,
      "▁மீது": 2456,
      "டா": 2457,
      "வோ": 2458,
      "▁கார்": 2459,
      "▁கிற": 2460,
      "▁ஆசிரிய": 2461,
      "ராஜ": 2462,
      "▁மார்": 2463,
      "▁காவ": 2464,
      "▁மூன்ற": 2465,
      "ிருக்கும்": 2466,
      "▁மாண": 2467,
      "ருடைய": 2468,
      "ல்களை": 2469,
      "▁சுவ": 2470,
      "ாலும்,": 2471,
      "▁அறங்காவ": 2472,
      "46": 2473,
      "▁சிறிய": 2474,
      "▁நிறை": 2475,
      "▁தொகு": 2476,
      "36": 2477,
      "ம்\">\n": 2478,
      "ப்புகள்": 2479,
      "▁விழ": 2480,
      "துக": 2481,
      "▁பிரித்த": 2482,
      "▁நாக": 2483,
      "▁மேல்": 2484,
      "▁இதனால்": 2485,
      "▁நீர்": 2486,
      "▁பொருள்": 2487,
      "▁இலக்கிய": 2488,
      "ைத்த": 2489,
      "▁இருந்தது.": 2490,
      "▁அளவ": 2491,
      "▁சிறு": 2492,
      "]]": 2493,
      "▁கிரு": 2494,
      "ிப்": 2495,
      "29": 2496,
      "▁கர": 2497,
      "▁முழ": 2498,
      "மது": 2499,
      "▁துவ": 2500,
      "26": 2501,
      "▁மறு": 2502,
      "▁பன்ன": 2503,
      "▁தாவ": 2504,
      "▁I": 2505,
      "▁பணியா": 2506,
      "▁விச": 2507,
      "▁மீண்டும்": 2508,
      "ழுத்த": 2509,
      "▁ராஜ": 2510,
      "ிக்கை": 2511,
      "▁உயர்": 2512,
      "னும்": 2513,
      "ாங்க": 2514,
      "▁வார": 2515,
      "ிகை": 2516,
      "▁செய்யப்பட்ட": 2517,
      "▁இருப்பின": 2518,
      "க்ச": 2519,
      "▁பற": 2520,
      "11": 2521,
      "▁f": 2522,
      "▁இப்ப": 2523,
      "ினி": 2524,
      "▁தள": 2525,
      "டன்": 2526,
      "▁வரும்": 2527,
      "பை": 2528,
      "ின்ன": 2529,
      "▁திக": 2530,
      "நோ": 2531,
      "▁ஐக்கிய": 2532,
      "த்தக்க": 2533,
      "▁ரோ": 2534,
      "ப்த": 2535,
      "ந்தி": 2536,
      "as": 2537,
      "▁இச்ச": 2538,
      "▁விக": 2539,
      "▁வெள்ள": 2540,
      "ு,": 2541,
      "▁தேர்வ": 2542,
      "ிமுக": 2543,
      "மூ": 2544,
      "▁நடு": 2545,
      "ுகளுக்கு": 2546,
      "மன்": 2547,
      "▁இருப்ப": 2548,
      "▁ஈடு": 2549,
      "▁ஸ்ட": 2550,
      "ம்ச": 2551,
      "▁வணிக": 2552,
      "ராட்ட": 2553,
      "▁சிக": 2554,
      "லே": 2555,
      "ுள்ளது.": 2556,
      "க்குற": 2557,
      "த்திலிருந்து": 2558,
      "▁நினை": 2559,
      "▁அமைப்பால்": 2560,
      "ுகிற": 2561,
      "▁இழ": 2562,
      "▁குழந்த": 2563,
      "▁கிடைக்க": 2564,
      "▁தனி": 2565,
      "▁குறைந்த": 2566,
      "▁நியூ": 2567,
      "▁ஒரே": 2568,
      "▁அதே": 2569,
      "▁சீன": 2570,
      "▁நிர": 2571,
      "▁மதிப்ப": 2572,
      "▁B": 2573,
      "ினர்": 2574,
      "▁தல": 2575,
      "வரை": 2576,
      "tion": 2577,
      "▁கூடிய": 2578,
      "மைப்பு": 2579,
      "▁நடத்த": 2580,
      "லூர்": 2581,
      "மிய": 2582,
      "நகர": 2583,
      "▁o": 2584,
      "▁இன்": 2585,
      "28": 2586,
      "போது": 2587,
      "▁அறங்காவலர்": 2588,
      "▁title=\"த": 2589,
      "ன்.": 2590,
      "ற்சி": 2591,
      ",000": 2592,
      "▁போட்டிகளில்": 2593,
      "ச்சி": 2594,
      "ெல்": 2595,
      "▁என்பத": 2596,
      "ின்றன": 2597,
      "▁சுற்று": 2598,
      "▁title=\"ப": 2599,
      "▁வைத்த": 2600,
      "மிட": 2601,
      "▁ஏற்பட்ட": 2602,
      "ாந்த": 2603,
      "த்தைக்": 2604,
      "▁ஐரோ": 2605,
      "ர்வு": 2606,
      "▁[[": 2607,
      "ிகளும்": 2608,
      "ிகள்,": 2609,
      "லு": 2610,
      "▁அறி": 2611,
      "ஜி": 2612,
      "▁விவ": 2613,
      "▁சிறப்ப": 2614,
      "▁பேரரச": 2615,
      "ப்போது": 2616,
      "▁அதிகார": 2617,
      "▁இங்கில": 2618,
      "▁மாகாண": 2619,
      "▁ஆல": 2620,
      "om": 2621,
      "ுக்காக": 2622,
      "டுகிறது.": 2623,
      "▁வங்க": 2624,
      "▁உள்ளது.\n": 2625,
      "த்திலும்": 2626,
      "னித": 2627,
      "▁மத்திய": 2628,
      "ல்த": 2629,
      "த்தால்": 2630,
      "▁அய": 2631,
      "▁ஃப": 2632,
      "தர": 2633,
      "▁பற்றி": 2634,
      "மர்": 2635,
      "படுத்த": 2636,
      "்க்க": 2637,
      "த்தையும்": 2638,
      "வியல்": 2639,
      "▁என்பவர்": 2640,
      "▁இரண்டாம்": 2641,
      "வாய்": 2642,
      "▁குரு": 2643,
      "▁கெ": 2644,
      "ப்பட்டது.\n": 2645,
      "▁ஏற்படுத்த": 2646,
      "▁பிரப": 2647,
      "ாய்": 2648,
      "▁அளவு": 2649,
      "லைப்": 2650,
      "சீ": 2651,
      "▁சென்னை": 2652,
      "த்தைப்": 2653,
      "71": 2654,
      "தன": 2655,
      "ாளர்கள்": 2656,
      "▁கத": 2657,
      "▁நடைபெற்ற": 2658,
      "▁(இ": 2659,
      "டக": 2660,
      "▁தோற்ற": 2661,
      "▁மது": 2662,
      "ஸ்வர": 2663,
      "ாட்சி": 2664,
      "▁பணி": 2665,
      "▁தொழில": 2666,
      "▁(ப": 2667,
      "▁அறிமுக": 2668,
      "▁அறிவியல்": 2669,
      "ாகக்": 2670,
      "el": 2671,
      "▁11": 2672,
      "▁கண்ண": 2673,
      "▁தமிழக": 2674,
      "▁கிழக்கு": 2675,
      "▁இயற்க": 2676,
      "▁தயார": 2677,
      "ண்மை": 2678,
      "ெட்": 2679,
      "ியும்": 2680,
      "▁உருவாக": 2681,
      "▁வாழ": 2682,
      "▁செய்": 2683,
      "▁title=\"அ": 2684,
      "ிழ": 2685,
      "▁வாழ்க்க": 2686,
      "▁மேற்கு": 2687,
      "ோட்ட": 2688,
      "▁தவிர": 2689,
      "▁இருக்கும்.": 2690,
      "▁இலங்கை": 2691,
      "▁கழக": 2692,
      "▁வின": 2693,
      "▁ஆக்க": 2694,
      "▁13": 2695,
      "▁அக்டோ": 2696,
      "ண்டி": 2697,
      "▁எடுத்துக்க": 2698,
      "▁பேச": 2699,
      "80": 2700,
      "்த்": 2701,
      ").": 2702,
      "▁உப": 2703,
      "ினர்.": 2704,
      "▁விளக்க": 2705,
      "ாலான": 2706,
      "▁முடிவ": 2707,
      "▁கூட": 2708,
      "ட்ப": 2709,
      "▁நடந்த": 2710,
      "ொருள்": 2711,
      "ையில்,": 2712,
      "tr": 2713,
      "ுகொண்ட": 2714,
      "வில்லை": 2715,
      "▁வைக்க": 2716,
      "▁வருட": 2717,
      "ிட்": 2718,
      "ுவாமி": 2719,
      "▁நிகழ்ச்ச": 2720,
      "ீடு": 2721,
      "▁சன்ன": 2722,
      "▁T": 2723,
      "ங்கும்": 2724,
      "ol": 2725,
      "▁of": 2726,
      "▁சிக்க": 2727,
      "▁வெளியிட": 2728,
      "▁மை": 2729,
      "▁கருவ": 2730,
      "42": 2731,
      "▁அவர்கள": 2732,
      "▁சூழ": 2733,
      "▁வெற்றி": 2734,
      "புர": 2735,
      "▁அளவில்": 2736,
      "▁பஞ்ச": 2737,
      "ணுவ": 2738,
      "ண்டிய": 2739,
      "▁அமில": 2740,
      "த்தில்,": 2741,
      "▁புவ": 2742,
      "லாம்.\n": 2743,
      "▁மலை": 2744,
      "▁ஜூ": 2745,
      "ளிய": 2746,
      "▁R": 2747,
      "▁title=\"ச": 2748,
      "மோ": 2749,
      "il": 2750,
      "மக்க": 2751,
      "ளு": 2752,
      "▁மரப": 2753,
      "மைப்ப": 2754,
      "▁கீழ": 2755,
      "▁ஆராய": 2756,
      "60": 2757,
      "ுவது": 2758,
      "▁உல": 2759,
      "▁பயண": 2760,
      "▁முன்ப": 2761,
      "▁வேண்டும்": 2762,
      "▁புகழ்": 2763,
      "ில்லியன்": 2764,
      "ுகின்றன.": 2765,
      "▁தேர்வுத்": 2766,
      "்தர": 2767,
      "▁முட": 2768,
      "மாறு": 2769,
      "▁மார": 2770,
      "▁14": 2771,
      "▁கவி": 2772,
      "நுட்ப": 2773,
      "ப்பூர்": 2774,
      "▁சூரிய": 2775,
      "▁இடம்பெ": 2776,
      "▁தற்போது": 2777,
      "மானது": 2778,
      "ாந்து": 2779,
      "▁துணை": 2780,
      "58": 2781,
      "▁பண்ப": 2782,
      "▁அம்மன்": 2783,
      "றும்": 2784,
      "▁கடல்": 2785,
      "க்கில்": 2786,
      "▁வெளியிட்ட": 2787,
      "▁அக்டோபர்": 2788,
      "▁\"க": 2789,
      "77": 2790,
      "▁அமைப்பு": 2791,
      "us": 2792,
      "யி": 2793,
      "ங்கை": 2794,
      "ென்": 2795,
      "▁பகுதி": 2796,
      "னம்": 2797,
      "▁இருப்பத": 2798,
      "▁சுமார்": 2799,
      "re": 2800,
      "▁சன": 2801,
      "▁சதுர": 2802,
      "▁ஐந்து": 2803,
      "புரி": 2804,
      "▁வெளி": 2805,
      "▁நாட்டின்": 2806,
      "68": 2807,
      "ிரா": 2808,
      "சாமி": 2809,
      "ந்தார்.": 2810,
      "▁அணி": 2811,
      "▁முதல்தர": 2812,
      "▁என்பதை": 2813,
      "▁அங்கு": 2814,
      "▁முதலில்": 2815,
      "▁தொகுதி": 2816,
      "▁உள்ளட": 2817,
      "▁திருத்த": 2818,
      "ாலத்தில்": 2819,
      "ங்கோ": 2820,
      "32": 2821,
      "▁விட்ட": 2822,
      "ண்கள": 2823,
      "லுக்கு": 2824,
      "▁இதனை": 2825,
      "தாகவும்": 2826,
      "▁D": 2827,
      "▁–": 2828,
      "▁பெரும்பாலும்": 2829,
      "மாகக்": 2830,
      "▁மத": 2831,
      "யூ": 2832,
      "▁பயி": 2833,
      "▁N": 2834,
      "▁இறை": 2835,
      "▁ஒளி": 2836,
      "▁இவற்ற": 2837,
      "▁உண்டு": 2838,
      "▁உதவ": 2839,
      "▁கொண்டிருந்த": 2840,
      "▁குழுவ": 2841,
      "ர்ப்ப": 2842,
      "um": 2843,
      "லான": 2844,
      "▁இணைந்து": 2845,
      "▁புள்ள": 2846,
      "த்தைச்": 2847,
      "▁இன்ன": 2848,
      "மையாக": 2849,
      "▁இந்தப்": 2850,
      "▁ஆய்வு": 2851,
      "▁அச்ச": 2852,
      "▁நீதி": 2853,
      "▁தெரிவ": 2854,
      "▁ஆட்ட": 2855,
      "▁பண்ட": 2856,
      "▁ஸ்ரீ": 2857,
      "▁பக்க": 2858,
      "▁திருச்ச": 2859,
      "ுக்கள": 2860,
      "▁எனவே": 2861,
      "ும்போது": 2862,
      "▁மகா": 2863,
      "▁துறை": 2864,
      "▁நெடு": 2865,
      "ாதார": 2866,
      "▁விமான": 2867,
      "▁நவம்பர்": 2868,
      "e)": 2869,
      "it": 2870,
      "▁நல்ல": 2871,
      "▁(அ": 2872,
      "ழுது": 2873,
      "வடிக்க": 2874,
      "▁மறை": 2875,
      "41": 2876,
      "▁கிள": 2877,
      "ழுவ": 2878,
      "▁இந்தியாவில்": 2879,
      "▁பங்கு": 2880,
      "▁பரப்ப": 2881,
      "மண": 2882,
      "ாவாக": 2883,
      "▁விடுத": 2884,
      "வரு": 2885,
      "▁போர்": 2886,
      "ஞ்சி": 2887,
      "▁ஆண்டுகளில்": 2888,
      "▁நடிக": 2889,
      "ீட்ட": 2890,
      "▁கட்டிட": 2891,
      "ூட்ட": 2892,
      "▁“": 2893,
      "வதற்கு": 2894,
      "and": 2895,
      "மாற்ற": 2896,
      "ியது.": 2897,
      "டைய": 2898,
      "றிவு": 2899,
      "▁அணியின்": 2900,
      "ினார்.\n": 2901,
      "ம்பு": 2902,
      "▁செப்ட": 2903,
      "▁திச": 2904,
      "▁நடவடிக்க": 2905,
      "▁இடம்": 2906,
      "▁அச": 2907,
      "▁தென்": 2908,
      "ர்ட்": 2909,
      "ர்த்தி": 2910,
      "னார்": 2911,
      "▁நிலையில்": 2912,
      "ித்தார்.": 2913,
      "▁ஜன": 2914,
      "ாச": 2915,
      "ஸ்,": 2916,
      "ங்களைக்": 2917,
      "▁வெளிப்ப": 2918,
      "▁(க": 2919,
      "▁17": 2920,
      "69": 2921,
      "▁ஆட்சி": 2922,
      "▁இருப்பினும்": 2923,
      "▁ஆகியவை": 2924,
      "59": 2925,
      "33": 2926,
      "▁எஸ்.": 2927,
      "ினும்": 2928,
      "னோ": 2929,
      "▁ஆக்ச": 2930,
      "▁இங்க": 2931,
      "வையாக": 2932,
      "டர்": 2933,
      "▁அலுவ": 2934,
      "▁ஃ": 2935,
      "▁உள்": 2936,
      "ிகளுக்கு": 2937,
      "▁பிரித்தானிய": 2938,
      "ஞான": 2939,
      "▁சேர்ம": 2940,
      "▁இணைக்க": 2941,
      ".எ": 2942,
      "▁திரும்ப": 2943,
      "ிருப்ப": 2944,
      "▁சிறப்பு": 2945,
      "ை,": 2946,
      "▁கட்ச": 2947,
      "▁அமைச்ச": 2948,
      "ட்டா": 2949,
      "ியோ": 2950,
      "▁அக்க": 2951,
      "▁கன்ன": 2952,
      "22": 2953,
      "▁உறுத": 2954,
      "▁இன்ற": 2955,
      "ினம்": 2956,
      "▁தொழில்நுட்ப": 2957,
      "▁பெண்": 2958,
      "▁கைப்ப": 2959,
      "▁கள": 2960,
      "மான்": 2961,
      "▁H": 2962,
      "▁மேம்ப": 2963,
      "▁தந்த": 2964,
      "▁அடிப்படையில்": 2965,
      "▁காலம்": 2966,
      "▁குழு": 2967,
      "▁உடல்": 2968,
      "▁அடை": 2969,
      "▁அதில்": 2970,
      "ரியா": 2971,
      "▁இலக்க": 2972,
      "▁புனித": 2973,
      "▁நடைபெறுகிறது.\n": 2974,
      "▁வழியாக": 2975,
      "▁சராச": 2976,
      "▁சை": 2977,
      "▁நாட்டு": 2978,
      "ரியில்": 2979,
      "▁30": 2980,
      "▁கிருஷ்ண": 2981,
      "ேசிய": 2982,
      "▁வினை": 2983,
      "▁இயக்கு": 2984,
      "▁ஏன": 2985,
      "▁மீட்டர்": 2986,
      "▁நிர்வாக": 2987,
      "பூர்": 2988,
      "▁உற்பத்தி": 2989,
      "▁நிறுவனம்": 2990,
      "▁கடவு": 2991,
      "▁உயர": 2992,
      "▁அனும": 2993,
      "▁பிறப்பு:": 2994,
      "▁நாய": 2995,
      "▁பிரான்": 2996,
      "▁சிகிச்ச": 2997,
      "▁குள": 2998,
      "▁இதற்கு": 2999,
      "▁முறையில்": 3000,
      "▁(19": 3001,
      "மன": 3002,
      "ாடி": 3003,
      "▁நூல்": 3004,
      "▁ஒலி": 3005,
      "▁பெரும்பாலான": 3006,
      "▁சென்று": 3007,
      "▁நிலையம்": 3008,
      "▁இத்திரைப்பட": 3009,
      "▁போட்டியில்": 3010,
      "▁நாள": 3011,
      "ிகளிலும்": 3012,
      "ed": 3013,
      "டோ": 3014,
      "ூல்": 3015,
      "▁2008": 3016,
      "▁டே": 3017,
      "ீர்": 3018,
      "▁ஆராய்ச்ச": 3019,
      "▁பெற்றார்.": 3020,
      "▁25": 3021,
      "▁புரி": 3022,
      "▁தாவர": 3023,
      "▁அதி": 3024,
      "▁சோழ": 3025,
      "▁ஜோ": 3026,
      "ிட்டு": 3027,
      "▁தேவை": 3028,
      "ிஸ்த": 3029,
      "பாள": 3030,
      "ன்கள்": 3031,
      "▁பின்ன": 3032,
      "▁சேவ": 3033,
      "ைகளுக்கு": 3034,
      "ொண்டு": 3035,
      "ளவில்": 3036,
      "ாக,": 3037,
      "▁குறிப்பிடத்தக்க": 3038,
      "▁செய்க": 3039,
      "▁வெற்ற": 3040,
      "ைகளும்": 3041,
      "▁முழுவத": 3042,
      "▁மின்ன": 3043,
      "▁வேண்டும்.": 3044,
      "▁\"(": 3045,
      "பெற்ற": 3046,
      "ுகள்,": 3047,
      "▁விகித": 3048,
      "ருந்து": 3049,
      "▁தற்க": 3050,
      "▁கால்": 3051,
      "▁விளங்க": 3052,
      "▁திருவிழாவாக": 3053,
      "தாகக்": 3054,
      "ைட்": 3055,
      "un": 3056,
      "ின்றனர்.\n": 3057,
      "ப்பான": 3058,
      "▁பகுதிகளில்": 3059,
      "▁விண்": 3060,
      "▁பொருட": 3061,
      "▁கொண்டிருக்க": 3062,
      "▁தென்ன": 3063,
      "▁இரண்டாவது": 3064,
      "▁குற்ற": 3065,
      "ரித்த": 3066,
      "▁ஐத": 3067,
      "ில்,": 3068,
      "orm": 3069,
      "▁தொலைக்க": 3070,
      "▁செப்டம்பர்": 3071,
      "▁தஞ்ச": 3072,
      "▁சார்ப": 3073,
      "▁அதற்கு": 3074,
      "ியே": 3075,
      "65": 3076,
      "▁கம்ப": 3077,
      "▁s": 3078,
      "▁கழ": 3079,
      "▁\"த": 3080,
      "▁ஒன்றாகும்.": 3081,
      "▁காய": 3082,
      "▁தொடக்க": 3083,
      "▁குறிய": 3084,
      "ருடன்": 3085,
      "47": 3086,
      "ுள்ளார்.\n": 3087,
      "▁மூலமாக": 3088,
      "டல்": 3089,
      "▁சம்ப": 3090,
      "▁ஏப்": 3091,
      "em": 3092,
      "ரங்க": 3093,
      "▁நாடுகளில்": 3094,
      "▁ஓட்ட": 3095,
      "31": 3096,
      "▁துடுப்பாட்டக்கார": 3097,
      "▁தங்க": 3098,
      "br": 3099,
      "▁விரும்ப": 3100,
      "லிங்க": 3101,
      "▁வகு": 3102,
      "ா்": 3103,
      "த்தோ": 3104,
      "ப்படுகின்றது.": 3105,
      "▁முக்கியமான": 3106,
      "ாவை": 3107,
      "▁)": 3108,
      "▁சத": 3109,
      "ரூ": 3110,
      "ங்களையும்": 3111,
      "பதி": 3112,
      "▁உடைய": 3113,
      "▁குறித்த": 3114,
      "▁சுழ": 3115,
      "ேரி": 3116,
      "▁உணவு": 3117,
      "▁மூலக்கூ": 3118,
      "ன்\n": 3119,
      "▁நோக்க": 3120,
      "▁மட்டும்": 3121,
      "▁\"ப": 3122,
      "டியாக": 3123,
      "▁(ந": 3124,
      "▁போக்க": 3125,
      "▁கோட்ட": 3126,
      "▁இதை": 3127,
      "▁பேர்": 3128,
      "ர்மான": 3129,
      "ங்களிலும்": 3130,
      "ர்கள்,": 3131,
      "ோத": 3132,
      "▁பருவ": 3133,
      "▁மாவட்டம்": 3134,
      "▁இங்கிலாந்து": 3135,
      "▁ஆகியோ": 3136,
      "▁எனக்": 3137,
      "▁வேலை": 3138,
      "▁நாடக": 3139,
      "ப்பட்டன.": 3140,
      "▁ஜே": 3141,
      "▁லா": 3142,
      "▁உரி": 3143,
      "வை.": 3144,
      "▁ஒன்றிய": 3145,
      "ப்ரவ": 3146,
      "▁நீண்ட": 3147,
      "ச்சிய": 3148,
      "▁ஹெ": 3149,
      "▁பிரபல": 3150,
      "200": 3151,
      "ன்ம": 3152,
      "கைய": 3153,
      "▁மி": 3154,
      "ல்களில்": 3155,
      "▁உறுப்பினராக": 3156,
      "ula": 3157,
      "▁மில்லியன்": 3158,
      "▁நிய": 3159,
      "பெய": 3160,
      "▁\"அ": 3161,
      "▁கவன": 3162,
      "▁வெளியே": 3163,
      "▁நோய்": 3164,
      "னாக": 3165,
      "ன்மை": 3166,
      "▁எம்.": 3167,
      "▁title=\"இ": 3168,
      "▁இடத்தில்": 3169,
      "ப்பு,": 3170,
      "்தொ": 3171,
      "▁பெருமாள்": 3172,
      "▁அடையாள": 3173,
      "▁குவ": 3174,
      "▁ஆண்டின்": 3175,
      "▁சேர்த்த": 3176,
      "டம்": 3177,
      "▁எண்": 3178,
      "ிடுக": 3179,
      "▁ஆசிய": 3180,
      "▁சுத": 3181,
      "▁காத": 3182,
      "ப்பிரிக்க": 3183,
      "▁கொடுத்த": 3184,
      "ad": 3185,
      "ப்படுகின்றன.\n": 3186,
      "ன்ச": 3187,
      "▁ஆகியோர்": 3188,
      "▁L": 3189,
      "ியலில்": 3190,
      "▁சேர்க்க": 3191,
      "▁தாய": 3192,
      "▁ஒள": 3193,
      "ப்புற": 3194,
      "▁பை": 3195,
      "ராம": 3196,
      "▁இசு": 3197,
      "நாள்": 3198,
      "▁வகையில்": 3199,
      "▁எல்": 3200,
      "தன்": 3201,
      "ுவை": 3202,
      "வதில்": 3203,
      "னில்": 3204,
      "▁தமிழ்த்": 3205,
      "ஞ்சு": 3206,
      "▁வடக்கு": 3207,
      "பூ": 3208,
      "▁ஏப்ரல்": 3209,
      "ுந்த": 3210,
      "னுக்கு": 3211,
      "▁மண்டல": 3212,
      "ுகளும்": 3213,
      "99": 3214,
      "▁இணைய": 3215,
      "88": 3216,
      "ர்களும்": 3217,
      "ர்களால்": 3218,
      "ியாகும்.": 3219,
      "ியல": 3220,
      "ாளராக": 3221,
      "▁வந்து": 3222,
      "▁வேதிய": 3223,
      "▁பழைய": 3224,
      "▁சித": 3225,
      "்களில்": 3226,
      "▁யாழ்": 3227,
      "த்தூர்": 3228,
      "ில்ல": 3229,
      "▁முன": 3230,
      "14": 3231,
      "▁விருது": 3232,
      "ேக்க": 3233,
      "▁அதிகமாக": 3234,
      "வொரு": 3235,
      "34": 3236,
      "பால": 3237,
      "டிப்ப": 3238,
      "▁கணித": 3239,
      "ுவதற்கு": 3240,
      "▁இந்தியா": 3241,
      "▁விரை": 3242,
      "▁c": 3243,
      "க்ஸ்": 3244,
      "▁இடம்பெற்ற": 3245,
      "▁தங்கள்": 3246,
      "▁title=\"ம": 3247,
      "ியன்": 3248,
      "▁சக்த": 3249,
      "▁2009": 3250,
      "▁வாச": 3251,
      "பி.": 3252,
      "▁பி.": 3253,
      "▁போன்றவற்ற": 3254,
      "ிக்கப்பட்டது.": 3255,
      "ation": 3256,
      "▁இந்தக்": 3257,
      "▁செய்யும்": 3258,
      "▁வரி": 3259,
      "▁குறிப்பாக": 3260,
      "ப்ரவரி": 3261,
      "▁அமைக்க": 3262,
      "▁கோவில்": 3263,
      "▁=": 3264,
      "மையை": 3265,
      "ிலிருந்த": 3266,
      "மிழ்": 3267,
      "ூர்த": 3268,
      "▁சின்ன": 3269,
      "▁கொண்டுள்ளார்.": 3270,
      "os": 3271,
      "▁சொல்": 3272,
      "ப்படுகிற": 3273,
      "▁கற்ப": 3274,
      "▁பிள": 3275,
      "ac": 3276,
      "▁உருவாக்கப்பட்ட": 3277,
      "55": 3278,
      "▁F": 3279,
      "▁உத்த": 3280,
      "▁உருவ": 3281,
      "▁செலுத்த": 3282,
      "▁மணி": 3283,
      "▁மலேசிய": 3284,
      "▁சகோ": 3285,
      "▁நடக்கின்றது.\n": 3286,
      "▁பத்திர": 3287,
      "ொருள": 3288,
      "ப்பகுதியில்": 3289,
      "▁செல்லும்": 3290,
      "▁கப்ப": 3291,
      "ாலி": 3292,
      "▁2010": 3293,
      "▁டை": 3294,
      "▁காங்க": 3295,
      "ஞர்": 3296,
      "▁என்பவ": 3297,
      "▁‘": 3298,
      "ங்களாக": 3299,
      "▁கற்ற": 3300,
      "▁பிள்ள": 3301,
      "வாய": 3302,
      "▁மதுரை": 3303,
      "▁E": 3304,
      "▁துண": 3305,
      "▁திகதி": 3306,
      "▁எனவும்": 3307,
      "▁விலங்க": 3308,
      "13": 3309,
      "▁சிங்க": 3310,
      "▁பின்ப": 3311,
      "டுகளை": 3312,
      "நாயக": 3313,
      "▁0": 3314,
      "▁அவருடைய": 3315,
      "ing": 3316,
      "▁அருகில்": 3317,
      "▁மற": 3318,
      "▁ஏற்படும்": 3319,
      "▁ரீ": 3320,
      "▁அப்ப": 3321,
      "▁வென்ற": 3322,
      "▁உள்ளன.\n": 3323,
      "ாரி": 3324,
      "பெரு": 3325,
      "▁கதா": 3326,
      "66": 3327,
      "▁ஆற": 3328,
      "▁th": 3329,
      "▁பெயரில்": 3330,
      "▁2007": 3331,
      "▁தமது": 3332,
      "ormula": 3333,
      "▁தந்தை": 3334,
      "றிவ": 3335,
      "▁(ச": 3336,
      "17": 3337,
      "▁உள்ளிட்ட": 3338,
      "▁கல்விய": 3339,
      "▁மனை": 3340,
      "▁சர்வ": 3341,
      "▁பதின": 3342,
      "▁\"ச": 3343,
      "▁பணியாற்ற": 3344,
      "ormula_": 3345,
      ".5": 3346,
      "ின.": 3347,
      "▁ஆட்ச": 3348,
      "வீன": 3349,
      "ஸ்வரர்": 3350,
      "ரிக": 3351,
      "▁கூடுத": 3352,
      "▁கருத்த": 3353,
      "▁பேரா": 3354,
      "வுகள்": 3355,
      "▁வயது": 3356,
      "ையோ": 3357,
      "டாக": 3358,
      "▁உள்ளனர்.": 3359,
      "திக்க": 3360,
      "▁பல்ல": 3361,
      "திப்பு": 3362,
      "▁தொடங்கிய": 3363,
      "ையைப்": 3364,
      "நே": 3365,
      "▁நடக்கின்றது.": 3366,
      "லிக்க": 3367,
      "▁ரி": 3368,
      "ன்ஸ்": 3369,
      "▁கொல்ல": 3370,
      "▁கண்டுபி": 3371,
      "▁பாதுகாப்பு": 3372,
      "மும்,": 3373,
      "▁வல்ல": 3374,
      "▁ரூ": 3375,
      "▁காணப்படும்": 3376,
      "நாட்டு": 3377,
      "ir": 3378,
      "▁வெளியான": 3379,
      "ப்பட்டுள்ளன.": 3380,
      "▁தோல்": 3381,
      "▁முறைப்படி": 3382,
      "▁எந்தவொரு": 3383,
      "ிருந்தது.": 3384,
      "▁வாழ்ந்த": 3385,
      "சின்": 3386,
      "▁p": 3387,
      "▁அரி": 3388,
      "44": 3389,
      "▁ஏற": 3390,
      "▁வேண்டிய": 3391,
      "▁பார்த்த": 3392,
      "▁வேக": 3393,
      "▁பிரதி": 3394,
      "ந்தர": 3395,
      "▁நூற்றாண்டில்": 3396,
      "னான": 3397,
      "ன்\">\n": 3398,
      "▁சண்ட": 3399,
      "ிலி": 3400,
      "டின": 3401,
      "37": 3402,
      "▁பதிப்ப": 3403,
      "▁விபர": 3404,
      "▁பெற்று": 3405,
      "▁நகரம்": 3406,
      "▁பால்": 3407,
      "த்தைத்": 3408,
      "ெய்த": 3409,
      "▁தலைமைய": 3410,
      "▁அதை": 3411,
      "ாவூர்": 3412,
      "▁அழுத்த": 3413,
      "▁பொருளாதார": 3414,
      "▁வங்காள": 3415,
      "▁நாடுகள": 3416,
      "ிரே": 3417,
      "ul": 3418,
      "▁2006": 3419,
      "▁என்க": 3420,
      "▁குடியரச": 3421,
      "▁ஆண்டுகள்": 3422,
      "▁தொலைவில்": 3423,
      "▁பிரத": 3424,
      "▁திரைப்படம்": 3425,
      "▁கிறித்த": 3426,
      ")\"": 3427,
      "▁குடி": 3428,
      "னியா": 3429,
      "▁ப்": 3430,
      "▁தாய்": 3431,
      "ுகளாக": 3432,
      "ழைக்க": 3433,
      "பிட": 3434,
      "ரள": 3435,
      "மைக்க": 3436,
      "▁பாடல்": 3437,
      "ெடுத்த": 3438,
      "ற்சிய": 3439,
      "▁தலைவராக": 3440,
      "பின்": 3441,
      "▁தனித்த": 3442,
      "ர்ச்சி": 3443,
      "▁நகரில்": 3444,
      "முத": 3445,
      "ந்தது.": 3446,
      "வெள": 3447,
      "▁உச்ச": 3448,
      "பவ": 3449,
      "லாளர்": 3450,
      "▁கல்லூரி": 3451,
      "சாய": 3452,
      "▁கடைசிய": 3453,
      "▁உர": 3454,
      "▁இடங்களில்": 3455,
      "▁இவர்கள்": 3456,
      "▁\"இ": 3457,
      "▁ஓவிய": 3458,
      "லை,": 3459,
      "தியாக": 3460,
      "▁மேற்பட்ட": 3461,
      "ார்ட": 3462,
      "..": 3463,
      "▁அழை": 3464,
      "▁மக்களின்": 3465,
      "லைக்": 3466,
      "▁இராணுவ": 3467,
      "ெய்": 3468,
      "▁கொடு": 3469,
      "▁இயற்ப": 3470,
      "▁யு": 3471,
      "வர்.\n": 3472,
      "▁formula_": 3473,
      "▁தெற்கு": 3474,
      "ைக்கு": 3475,
      "ap": 3476,
      "ையைக்": 3477,
      "▁மாநிலத்தில்": 3478,
      "▁மட": 3479,
      "▁கே.": 3480,
      "▁சென்ன": 3481,
      "▁முழுவதும்": 3482,
      "ூரில்": 3483,
      "ுக்குப்": 3484,
      "▁சேர்ந்து": 3485,
      "▁சப": 3486,
      "▁தலைமை": 3487,
      "சார்": 3488,
      "▁முனை": 3489,
      "▁உலகின்": 3490,
      "▁விற்ப": 3491,
      "▁நெடுஞ்ச": 3492,
      "▁பிறந்தார்.": 3493,
      "▁கட்டுர": 3494,
      "▁ஐரோப்பிய": 3495,
      "▁1,": 3496,
      "தனை": 3497,
      "▁கட்சி": 3498,
      "▁பிரச்ச": 3499,
      "▁நீள": 3500,
      "▁யாழ்ப்பா": 3501,
      "ந்தைய": 3502,
      "டுவத": 3503,
      "ஸ்\"": 3504,
      "ுகளைக்": 3505,
      "▁இவ்வாறு": 3506,
      "▁நப": 3507,
      "ிடையே": 3508,
      "▁இப்பட": 3509,
      "▁தெரிய": 3510,
      "▁விரிவ": 3511,
      "-ஆம்": 3512,
      "▁அத்த": 3513,
      "▁அரசாங்க": 3514,
      "▁22": 3515,
      "மய": 3516,
      "▁ஆண": 3517,
      "ையால்": 3518,
      "▁கோவில": 3519,
      "ங்களைப்": 3520,
      "மாகவும்": 3521,
      "▁சால": 3522,
      "▁பொறிய": 3523,
      "▁போன்றவை": 3524,
      "▁ஜான்": 3525,
      "▁செயற்ப": 3526,
      "▁வாக": 3527,
      "ப்பர்": 3528,
      "▁கர்": 3529,
      "▁பதில": 3530,
      "▁புத்தக": 3531,
      "▁நாடு": 3532,
      "▁தாம": 3533,
      "▁அவருக்கு": 3534,
      "▁கரை": 3535,
      "▁கிடைத்த": 3536,
      "▁வரலாறு": 3537,
      "வெளி": 3538,
      "ழுப்பு": 3539,
      "ட்டிய": 3540,
      "▁போராட்ட": 3541,
      "ப்பே": 3542,
      "ப்பெரு": 3543,
      "ag": 3544,
      "27": 3545,
      "ீரர்": 3546,
      "II": 3547,
      "ri": 3548,
      "ாளு": 3549,
      "ப்படுகிறது": 3550,
      "▁21": 3551,
      "ாதி": 3552,
      "ம்\"": 3553,
      "்களை": 3554,
      "▁வண்ண": 3555,
      "▁ஆர்.": 3556,
      "▁கொண்டது.": 3557,
      "▁காங்கிர": 3558,
      "▁விஜ": 3559,
      "90": 3560,
      "▁கார்ப": 3561,
      "ஷ்ட": 3562,
      "▁வரலாற்ற": 3563,
      "▁பங்குகொண்ட": 3564,
      "▁வரலாற்று": 3565,
      "▁அவற்றின்": 3566,
      "ாப்": 3567,
      "லாமிய": 3568,
      "▁மாநிலத்தின்": 3569,
      "▁மிகப்பெ": 3570,
      "▁இருந்தார்.": 3571,
      "▁ஒன்றாக": 3572,
      "▁திருப்ப": 3573,
      "ராவ": 3574,
      "ார்த்த": 3575,
      "க்கா": 3576,
      "ெல்ல": 3577,
      "ியைப்": 3578,
      "ுகின்ற": 3579,
      "▁இருப": 3580,
      "▁மற்றொரு": 3581,
      "▁சொந்த": 3582,
      "ிற்கும்": 3583,
      "▁தலைநகர": 3584,
      "▁கொடுக்க": 3585,
      "ையானது": 3586,
      "நகர்": 3587,
      "▁எடுத்துக்காட்ட": 3588,
      "விட்ட": 3589,
      "ியர்": 3590,
      "யின்": 3591,
      "23": 3592,
      "▁தெள": 3593,
      "ைடு": 3594,
      "மக": 3595,
      "▁பௌ": 3596,
      "▁தலைவர்": 3597,
      "ப்பள்ளி": 3598,
      "▁இவருக்கு": 3599,
      "ாளுமன்ற": 3600,
      "மற்ற": 3601,
      "திகள்": 3602,
      "▁தான": 3603,
      "▁ஆர்வ": 3604,
      "▁நாடுகள்": 3605,
      "தற்கு": 3606,
      "ரிக்": 3607,
      "த்தே": 3608,
      "ro": 3609,
      "▁ஒப்பந்த": 3610,
      "ையாகும்.": 3611,
      "▁எரி": 3612,
      "ொன்ற": 3613,
      "பீ": 3614,
      "24": 3615,
      "▁தயாரிக்க": 3616,
      "▁மார்ச்": 3617,
      "▁தம்": 3618,
      "வக": 3619,
      "▁விளையாட்டு": 3620,
      "▁அழக": 3621,
      "95": 3622,
      "▁நாடாளுமன்ற": 3623,
      "▁முதலிய": 3624,
      "▁அரசின்": 3625,
      "வித": 3626,
      "▁டிச": 3627,
      "த்தல்": 3628,
      "▁வலி": 3629,
      "ப்பாடு": 3630,
      "▁நிறுத்த": 3631,
      "▁துடுப்பாட்டக்காரர்.": 3632,
      "சம்": 3633,
      "ாலை": 3634,
      "ுவின்": 3635,
      "▁இருக்கிறது.": 3636,
      "▁பங்குகொண்டார்.\n": 3637,
      "சியம்": 3638,
      "▁மாரியம்மன்": 3639,
      "▁சுற்ற": 3640,
      "▁தொடர்பு": 3641,
      "▁அவரை": 3642,
      "▁இலங்கையின்": 3643,
      "▁24": 3644,
      "▁விவசாய": 3645,
      "மையில்": 3646,
      "▁பயன்படுத்தி": 3647,
      "▁தீவிர": 3648,
      "▁பட்டம்": 3649,
      "▁எடுத்து": 3650,
      "▁கருத்து": 3651,
      "▁கி.மீ": 3652,
      "▁100": 3653,
      "▁உண்ட": 3654,
      "▁பிட": 3655,
      "▁இடையே": 3656,
      "ூர": 3657,
      "ட்சு": 3658,
      "▁திருமணம்": 3659,
      "ூர்,": 3660,
      "▁title=\"ந": 3661,
      "குதி": 3662,
      "▁வீட்ட": 3663,
      "▁முன்னாள்": 3664,
      "▁m": 3665,
      "ற்கும்": 3666,
      "▁அம்ப": 3667,
      "▁கடற்க": 3668,
      "▁டி.": 3669,
      "▁ஆற்றல்": 3670,
      "he": 3671,
      "▁தண்ட": 3672,
      "▁கல்வ": 3673,
      "▁K": 3674,
      "▁வைத்து": 3675,
      "▁போட்டியிலும்": 3676,
      "▁விடு": 3677,
      "▁பக": 3678,
      "▁பார்க்கப்பட்ட": 3679,
      "▁அவ்வ": 3680,
      "ான்,": 3681,
      "▁2001": 3682,
      "▁தொழி": 3683,
      "▁(ஆ": 3684,
      "ைகளையும்": 3685,
      "▁ஆர்": 3686,
      "▁படைய": 3687,
      "▁எனினும்": 3688,
      "▁50": 3689,
      "ப்பட்டது": 3690,
      "டித்து": 3691,
      "▁லீ": 3692,
      "▁தொலைக்காட்சி": 3693,
      "▁190": 3694,
      "56": 3695,
      "▁the": 3696,
      "▁அப்போது": 3697,
      "▁இடைய": 3698,
      "க்குறிப்பு": 3699,
      "▁முருக": 3700,
      "86": 3701,
      "▁நகர்": 3702,
      "▁எனப்படும்": 3703,
      "▁சந்திர": 3704,
      "▁இல்லாத": 3705,
      "▁முற்ற": 3706,
      "▁மொழியில்": 3707,
      "▁W": 3708,
      "▁(S": 3709,
      "▁கிரிக்க": 3710,
      "▁கதை": 3711,
      "மிக்க": 3712,
      "சார": 3713,
      "ter": 3714,
      "▁திருந": 3715,
      "▁விளையாட்டுவ": 3716,
      "▁உண்டு.": 3717,
      "▁இதழ": 3718,
      "▁இரத்த": 3719,
      "▁இராக": 3720,
      "ணு": 3721,
      "▁இறந்த": 3722,
      "▁வாய": 3723,
      "▁அளிக்க": 3724,
      "▁சுதந்திர": 3725,
      "▁கடைசியாகப்": 3726,
      "ம்மா": 3727,
      "▁மின": 3728,
      "ிறார்கள்.": 3729,
      "▁இயங்க": 3730,
      "▁சாக": 3731,
      "▁போல்": 3732,
      "▁அட்ட": 3733,
      "▁1.": 3734,
      "ுக்குத்": 3735,
      "▁திட்டத்தின்": 3736,
      "▁அய்ய": 3737,
      "ம்பரிய": 3738,
      "▁போக்குவர": 3739,
      "ித்": 3740,
      "▁2014": 3741,
      "▁விளையாட்டுவீரர்": 3742,
      "ாண்டு": 3743,
      "ப்பாக": 3744,
      "த்துக்": 3745,
      "▁விபரக்குறிப்பு": 3746,
      "ிருந்தார்.": 3747,
      "ிட்டி": 3748,
      "21": 3749,
      "▁விபரக்குறிப்பு.": 3750,
      "ீட்டு": 3751,
      "யர்": 3752,
      "தால்,": 3753,
      "▁பதிவு": 3754,
      "நக": 3755,
      "▁எனப்": 3756,
      "▁வரையற": 3757,
      "▁விட்டு": 3758,
      "▁தின": 3759,
      "ராட்சி": 3760,
      "ம்பர": 3761,
      "▁ஆப": 3762,
      "ந்து,": 3763,
      "▁ஒருவர்": 3764,
      "▁அவர்களின்": 3765,
      "சில": 3766,
      "▁காந்த": 3767,
      "த்தும்": 3768,
      "▁வேல": 3769,
      "ேல்": 3770,
      "ப்பட்டி": 3771,
      "▁மென்ப": 3772,
      "ங்கலம்": 3773,
      "▁அடங்க": 3774,
      "▁தெற்க": 3775,
      "▁ரெ": 3776,
      "▁ஜி": 3777,
      "▁வழக்கு": 3778,
      "பொ": 3779,
      "ப்பது": 3780,
      "▁பயன": 3781,
      "▁தெய்வ": 3782,
      "▁கைய": 3783,
      "மார": 3784,
      "▁தேர்ந்தெடுக்கப்பட்ட": 3785,
      "▁தொடர்பான": 3786,
      "▁தேதி": 3787,
      "மிருந்து": 3788,
      "த்திலுள்ள": 3789,
      "▁சராசரி": 3790,
      "▁நோக்கி": 3791,
      "▁மாறு": 3792,
      "▁ஸ்க": 3793,
      "▁வகையான": 3794,
      "▁மேற்கொள்ள": 3795,
      "▁பார்வ": 3796,
      "▁அடைந்த": 3797,
      "▁குளோ": 3798,
      "ப்புக்": 3799,
      "▁போது,": 3800,
      "▁நான்க": 3801,
      "▁சரிய": 3802,
      "96": 3803,
      "▁திரைப்படமாகும்.": 3804,
      "▁அதனால்": 3805,
      "▁அதிகமான": 3806,
      "க்கள": 3807,
      "▁ஒருவ": 3808,
      "▁வருகிறது.": 3809,
      "▁வானூர்த": 3810,
      "▁உலோக": 3811,
      "ைகளைக்": 3812,
      "▁.\n": 3813,
      "▁அதனை": 3814,
      "▁காணப்படுகிறது.": 3815,
      "▁அண்ண": 3816,
      "ன்\"": 3817,
      "டுகளில்": 3818,
      "▁ஆண்டுகளுக்கு": 3819,
      "▁டிர": 3820,
      "▁என்": 3821,
      "▁பகு": 3822,
      "ிச": 3823,
      "85": 3824,
      "கிரி": 3825,
      "▁பாரம்பரிய": 3826,
      "▁முயற்ச": 3827,
      "▁விமர்": 3828,
      "▁சொற்க": 3829,
      "ாள்.": 3830,
      "▁பகுதியாக": 3831,
      "▁தேர்தலில்": 3832,
      "▁கொள்ளவில்லை.": 3833,
      "▁கிலோமீ": 3834,
      "ன்கு": 3835,
      "▁யோ": 3836,
      "ொழ": 3837,
      "▁23": 3838,
      "▁சகோதர": 3839,
      "▁தட": 3840,
      "▁தனிம": 3841,
      "▁அல்": 3842,
      "▁கோட்": 3843,
      "▁பாத்திர": 3844,
      "ுள்ளது.\n": 3845,
      "▁உயிர்": 3846,
      "▁கைப்பற்ற": 3847,
      "s)": 3848,
      "▁குறித்து": 3849,
      "▁இஸ்": 3850,
      "ிறார்.\n": 3851,
      "▁26": 3852,
      "ுள்ளனர்.": 3853,
      "▁தஞ்சாவூர்": 3854,
      "▁கலா": 3855,
      "ியார்": 3856,
      "▁உருவான": 3857,
      "ஸ்வ": 3858,
      "▁ஏழு": 3859,
      "▁மிகப்பெரிய": 3860,
      "▁ஏற்க": 3861,
      "ுறுத்த": 3862,
      "▁ராம": 3863,
      "ak": 3864,
      "▁பெர்": 3865,
      "ரைடு": 3866,
      "▁செல்க": 3867,
      "▁எதிராக": 3868,
      "▁நிரு": 3869,
      "▁அதாவது": 3870,
      "னீ": 3871,
      "ேசு": 3872,
      "▁பாண்டிய": 3873,
      "▁நவீன": 3874,
      "▁கடு": 3875,
      "▁காம": 3876,
      "ார்கள்.\n": 3877,
      "ரும்,": 3878,
      "த்திற்கான": 3879,
      "▁2012": 3880,
      "▁பிரிவு": 3881,
      "▁கிரேக்க": 3882,
      "ாட்டில்": 3883,
      "ரெ": 3884,
      "▁(C": 3885,
      "ுகோ": 3886,
      "▁பெற்றது.": 3887,
      "▁நடைமுறை": 3888,
      "▁சிவன்": 3889,
      "▁முடியும்.": 3890,
      "▁அறிமுகப்படுத்த": 3891,
      "▁சர்வதேச": 3892,
      "ளைய": 3893,
      "▁விளைவ": 3894,
      "▁சாதன": 3895,
      "ழ்ச்ச": 3896,
      "▁பெரும": 3897,
      "ன்ட்": 3898,
      "சுவாமி": 3899,
      "▁இந்தத்": 3900,
      "▁பொதுவான": 3901,
      "▁தடு": 3902,
      "▁டிசம்பர்": 3903,
      "▁2011.\n": 3904,
      "ியால்": 3905,
      "▁ஒத்த": 3906,
      "▁இராம": 3907,
      "ண்களின்": 3908,
      "▁28": 3909,
      "ராகவும்": 3910,
      "▁வாழும்": 3911,
      "▁ஆஸ்த": 3912,
      "மல": 3913,
      "▁2005": 3914,
      "▁உதவிய": 3915,
      "ப்படுவத": 3916,
      "ணய": 3917,
      "▁மூன்றாம்": 3918,
      "மொழ": 3919,
      "ிருத்த": 3920,
      "ையாகக்": 3921,
      "▁சரி": 3922,
      "▁குண": 3923,
      "▁வரிச": 3924,
      "ூட": 3925,
      "ளைப்": 3926,
      "▁இசைய": 3927,
      "▁உள்ளடக்கிய": 3928,
      "▁வேதியியல்": 3929,
      "ent": 3930,
      "▁யாழ்ப்பாண": 3931,
      "▁நூற்றாண்டின்": 3932,
      "பம்": 3933,
      "த்துவம்": 3934,
      "▁ஏ.": 3935,
      "▁கொள்": 3936,
      "ேக": 3937,
      "க்கான": 3938,
      "ள்,": 3939,
      "ந்தர்": 3940,
      "▁பன்னாட்டு": 3941,
      "▁அலை": 3942,
      "▁வில்": 3943,
      "மின்": 3944,
      "▁title=\"ஆ": 3945,
      "▁மருந்த": 3946,
      "89": 3947,
      "▁லூ": 3948,
      "▁கண்டறிய": 3949,
      "▁கேரள": 3950,
      "▁உண்": 3951,
      "▁(M": 3952,
      "்கள்,": 3953,
      "▁சான்ற": 3954,
      "▁எதி": 3955,
      "ாட்": 3956,
      "▁J": 3957,
      "▁காஞ்சி": 3958,
      "மலை": 3959,
      "ப்பதற்கு": 3960,
      "▁வடி": 3961,
      "▁பிரெ": 3962,
      "▁வெவ்": 3963,
      "▁பாவ": 3964,
      "▁ஜெய": 3965,
      "▁சனவரி": 3966,
      "▁குறைவான": 3967,
      "▁வர்த்த": 3968,
      "▁சேவை": 3969,
      "▁அமைந்துள்ளது.\n": 3970,
      "ார்ட்": 3971,
      "ிரம்": 3972,
      "ுக்கொண்ட": 3973,
      "▁நீதிமன்ற": 3974,
      "▁புரா": 3975,
      "தர்": 3976,
      "▁எழுத்து": 3977,
      "ுக்கொள்ள": 3978,
      "த்தினை": 3979,
      "ையிலிருந்து": 3980,
      "▁டோ": 3981,
      "▁கட்டுப்படுத்த": 3982,
      "▁எல்லா": 3983,
      "ிகளாக": 3984,
      "▁எண்ணிக்கை": 3985,
      "ப்படுவது": 3986,
      "ப்பானிய": 3987,
      "av": 3988,
      "▁இயக்கத்தில்": 3989,
      "மைத்த": 3990,
      "▁காணப்படுகின்றன.": 3991,
      "ுள்ளன.": 3992,
      "▁அனுப்ப": 3993,
      "▁பறவ": 3994,
      "லெ": 3995,
      "▁அவ்": 3996,
      "ிகளையும்": 3997,
      "▁மாவட்டத்தின்": 3998,
      "▁எண்ணிக்க": 3999,
      "▁அரசியல்வாத": 4000,
      "et": 4001,
      "▁ஒழு": 4002,
      "▁பொருட்க": 4003,
      "▁பாடல்கள்": 4004,
      "64": 4005,
      "நிலையில்": 4006,
      "▁வந்தது.": 4007,
      "▁இவரின்": 4008,
      "▁ஒன்று.": 4009,
      "▁பன": 4010,
      "ர்ப": 4011,
      "▁நுண்ண": 4012,
      "▁தர்ம": 4013,
      "ai": 4014,
      "li": 4015,
      "▁2004": 4016,
      "▁தன்னுடைய": 4017,
      "▁பக்த": 4018,
      "▁உரிம": 4019,
      "▁கதிர": 4020,
      "ிரைப்படம்": 4021,
      "▁நிதி": 4022,
      "▁பரிந்து": 4023,
      "▁உள": 4024,
      "பாடுகள்": 4025,
      "▁பகுதிய": 4026,
      "ப்படும்.\n": 4027,
      "▁கல்வெ": 4028,
      "▁பல்கலைக்கழகத்தில்": 4029,
      "▁(A": 4030,
      "▁இல்லை.": 4031,
      "ம்ஸ்": 4032,
      "ல்லிய": 4033,
      "▁சுர": 4034,
      "▁பெண்ண": 4035,
      "க்கே": 4036,
      "▁இயந்திர": 4037,
      "ுறு": 4038,
      "▁எதிரான": 4039,
      "ியைத்": 4040,
      "▁லெ": 4041,
      "▁2013": 4042,
      "▁எடு": 4043,
      "▁ஏற்பட": 4044,
      "ஜா": 4045,
      "▁வாய்ந்த": 4046,
      "▁தடை": 4047,
      "டே": 4048,
      "▁ஒருங்கி": 4049,
      "▁இயற்கை": 4050,
      "▁கிமீ": 4051,
      "ப்பட்டார்.": 4052,
      "▁தன்மை": 4053,
      "▁இம்மாவட்ட": 4054,
      "▁மரண": 4055,
      "▁செயற்க": 4056,
      "▁உட்க": 4057,
      "▁உள்ளது": 4058,
      "▁d": 4059,
      "▁கூறிய": 4060,
      "தும்,": 4061,
      "▁குத": 4062,
      "ிக்கோ": 4063,
      "▁புரோ": 4064,
      "▁2000": 4065,
      "சூ": 4066,
      "ித்தது.": 4067,
      "▁தெலு": 4068,
      "▁பாதுக": 4069,
      "▁தேர்தல்": 4070,
      "▁பகுதிகள்": 4071,
      "ாகம": 4072,
      "நாடக": 4073,
      "ாலய": 4074,
      "▁இறுதியில்": 4075,
      "ஞ்": 4076,
      "முள்ள": 4077,
      "▁கௌ": 4078,
      "ொள்": 4079,
      "ப்பாக்க": 4080,
      "ம்பட்டி": 4081,
      "▁தற்கால": 4082,
      "▁குழந்தை": 4083,
      "▁மகன்": 4084,
      "▁வாழ்க": 4085,
      "▁மேலும்,": 4086,
      "▁முடிவு": 4087,
      "▁ஈடுபட்ட": 4088,
      "ரன்": 4089,
      "▁அரிய": 4090,
      "▁b": 4091,
      "▁பெரி": 4092,
      "▁என்பன": 4093,
      "▁பேராசிரிய": 4094,
      "▁குல": 4095,
      "டெ": 4096,
      "▁இந்தியாவ": 4097,
      "▁அலக": 4098,
      "▁சூழ்": 4099,
      "▁கிட்ட": 4100,
      "▁இன்று": 4101,
      "▁நொ": 4102,
      "▁செய்வத": 4103,
      "▁id=\"10": 4104,
      "▁url=\"https://ta.wikipedia.org/wiki?curid=10": 4105,
      "▁சாதாரண": 4106,
      "▁கரிம": 4107,
      "▁அமெரிக்காவில்": 4108,
      "▁தமிழில்": 4109,
      "▁இல்லை": 4110,
      "▁அத்துடன்": 4111,
      "▁தொடர்புடைய": 4112,
      "▁வெளிப்படுத்த": 4113,
      "▁:": 4114,
      "▁நான்": 4115,
      "ையுடன்": 4116,
      "▁என்றும்,": 4117,
      "▁பள்ளி": 4118,
      "மாக்க": 4119,
      "▁ரே": 4120,
      "▁இத்தகைய": 4121,
      "▁பிரிக்க": 4122,
      "▁நேரத்தில்": 4123,
      "▁கவ": 4124,
      "ையிலும்": 4125,
      "98": 4126,
      "▁சுவாமி": 4127,
      "க்கோட்டை": 4128,
      "ோண": 4129,
      "▁பணிய": 4130,
      "ாது": 4131,
      "ோன்": 4132,
      "ுகளையும்": 4133,
      "ாளர்கள": 4134,
      "▁மிகுந்த": 4135,
      "டி,": 4136,
      "ம்பி": 4137,
      "▁நாட்டில்": 4138,
      "▁(திரைப்படம்": 4139,
      "▁செய்தார்.": 4140,
      "▁ஜெர்ம": 4141,
      "▁உருவாக்கிய": 4142,
      "▁2016": 4143,
      "பார": 4144,
      "ிகு": 4145,
      "▁முதலாம்": 4146,
      "-க": 4147,
      "▁மஞ்ச": 4148,
      "▁ஆளு": 4149,
      "▁படைத்த": 4150,
      "▁முன்னேற்ற": 4151,
      "▁தென்க": 4152,
      "▁மிகப்": 4153,
      "ினும்,": 4154,
      "டன்,": 4155,
      "ன்கள": 4156,
      "▁ஆக்கை": 4157,
      "ிலே": 4158,
      "நி": 4159,
      "▁ஆவண": 4160,
      "ளும்": 4161,
      "▁உயிரின": 4162,
      "்த்து": 4163,
      "ெழு": 4164,
      "▁இருப்பதால்": 4165,
      "▁சிந்த": 4166,
      "▁40": 4167,
      "▁இதுவே": 4168,
      "டிப்பு": 4169,
      "▁தேவையான": 4170,
      "▁ஒல": 4171,
      "யிர": 4172,
      "▁பெண்கள": 4173,
      "த்து,": 4174,
      "▁விண்மீ": 4175,
      "ல்ட்": 4176,
      "▁தை": 4177,
      "▁அம்ம": 4178,
      "▁எளி": 4179,
      "▁எவ்": 4180,
      "▁கண்டுபிட": 4181,
      "92": 4182,
      "▁பச்ச": 4183,
      "▁இயல்ப": 4184,
      "ம்:": 4185,
      "▁சிர": 4186,
      "▁நண்ப": 4187,
      "ுக்குக்": 4188,
      "▁மக்கள்தொ": 4189,
      "ட்டத்தில்": 4190,
      "ர்ப்பு": 4191,
      "▁சக்க": 4192,
      "வாற": 4193,
      "▁title=\"எ": 4194,
      "பாய்": 4195,
      "▁இந்": 4196,
      "ர்கள்.": 4197,
      "ங்களுடன்": 4198,
      "▁27": 4199,
      "▁தேர்வு": 4200,
      "▁தொடருந்து": 4201,
      "▁சிங்": 4202,
      "த்திற்கும்": 4203,
      "ரும": 4204,
      "ாவும்": 4205,
      "ாமலை": 4206,
      "▁ஒற்ற": 4207,
      "த்திரம்": 4208,
      "▁பாரா": 4209,
      "▁தொகுதியில்": 4210,
      "ாவிட": 4211,
      "▁U": 4212,
      "▁பொருத்த": 4213,
      "▁அதிகரிக்க": 4214,
      "▁வலை": 4215,
      "▁(எ": 4216,
      "ாட்டுத்": 4217,
      "▁க்": 4218,
      "▁சுய": 4219,
      "▁குறிப்பிடுக": 4220,
      "ுகின்றனர்.": 4221,
      "▁பாடிய": 4222,
      "▁தவற": 4223,
      "og": 4224,
      "▁முன்னர்": 4225,
      "▁நாவ": 4226,
      "▁புற்று": 4227,
      "ையைச்": 4228,
      "▁கல்லூரியில்": 4229,
      "மொழி": 4230,
      "ரைக்க": 4231,
      "▁வழிப": 4232,
      "லால்": 4233,
      "க்குப்": 4234,
      "▁ஆப்பிரிக்க": 4235,
      "▁ஆகியவற்றை": 4236,
      "▁ஆக்கைவில்": 4237,
      "்க்": 4238,
      "▁29": 4239,
      "▁கருதப்படுகிறது.": 4240,
      "லாந்து": 4241,
      "od": 4242,
      "▁அஞ்ச": 4243,
      "▁பயிற்சி": 4244,
      "ோதைய": 4245,
      "▁வால்": 4246,
      "ுகிறார்.": 4247,
      "▁வி.": 4248,
      "ராகப்": 4249,
      "▁வெவ்வேறு": 4250,
      "ைகளைப்": 4251,
      "▁ஆசிரியர்": 4252,
      "▁சிறுவ": 4253,
      "ரிடம்": 4254,
      "▁குறைவாக": 4255,
      "ில்லி": 4256,
      "▁ல்": 4257,
      "▁ஆண்டில்,": 4258,
      "▁படுக": 4259,
      "த்தினால்": 4260,
      ".0": 4261,
      "▁ஐந்த": 4262,
      "▁அலுவலக": 4263,
      "▁சர": 4264,
      "▁உடன்": 4265,
      "▁(\"S": 4266,
      "-19": 4267,
      "63": 4268,
      "▁தெளிவ": 4269,
      "▁பௌத்த": 4270,
      "ிகா": 4271,
      "ளிக்க": 4272,
      "▁நைட்": 4273,
      "▁புகழ்பெற்ற": 4274,
      "▁உரோ": 4275,
      "ப்பூ": 4276,
      "▁அணுக": 4277,
      "▁மெய்ய": 4278,
      "▁சிகிச்சை": 4279,
      "நீர்": 4280,
      "ியியல்": 4281,
      "ாளையம்": 4282,
      "▁விடுதலை": 4283,
      "ந்த்": 4284,
      "ருக்கும்": 4285,
      "▁நூல்கள்": 4286,
      "▁உதாரண": 4287,
      "▁ஆவது": 4288,
      "▁and": 4289,
      "ல்லி": 4290,
      "ிறது,": 4291,
      "▁பற்ற": 4292,
      "▁தண்ண": 4293,
      "▁ஆஃப்": 4294,
      "▁இந்தியத்": 4295,
      "▁இராச்சிய": 4296,
      "▁\"ந": 4297,
      "▁O": 4298,
      "ப்படுகின்ற": 4299,
      "ழல்": 4300,
      "▁வேளா": 4301,
      "▁ஹோ": 4302,
      "▁நிகழ்வ": 4303,
      "91": 4304,
      "▁(\"A": 4305,
      "▁வாழ்க்கை": 4306,
      "▁உட்பட": 4307,
      "▁நல": 4308,
      "▁கோட்டை": 4309,
      "பிய": 4310,
      "▁இடையில்": 4311,
      "தியான": 4312,
      "▁விருதுக": 4313,
      "▁ஆதர": 4314,
      "▁கற்க": 4315,
      "ப்புகளை": 4316,
      "▁உயர்ந்த": 4317,
      "▁வாங்க": 4318,
      "▁கண்க": 4319,
      "ப்பகுதி": 4320,
      "▁போன்று": 4321,
      "▁ஆதார": 4322,
      "▁போட்டிகளிலும்": 4323,
      "னைக்": 4324,
      "▁வன": 4325,
      "▁நிறுவனத்தின்": 4326,
      "▁பின்னர்,": 4327,
      "ang": 4328,
      "▁நுழை": 4329,
      "▁திருமண": 4330,
      "▁இறுதி": 4331,
      "வம்": 4332,
      "▁தத்துவ": 4333,
      "துக்க": 4334,
      "ிருக்கும்.": 4335,
      "▁கேட்ட": 4336,
      "▁சேர்த்து": 4337,
      "▁ஆட": 4338,
      "யோக": 4339,
      "ரான்": 4340,
      "▁குறைக்க": 4341,
      "▁ஆண்டுகளில்,": 4342,
      "▁தோன்றிய": 4343,
      "▁கனிம": 4344,
      "ிப்பத": 4345,
      "▁அம்ச": 4346,
      "ிமுற": 4347,
      "வர்களுக்கு": 4348,
      "சால": 4349,
      "ிலை": 4350,
      "வர்களின்": 4351,
      "குதியில்": 4352,
      "▁V": 4353,
      "ையைத்": 4354,
      "▁நாடுகளின்": 4355,
      "▁ஞான": 4356,
      "டியம்": 4357,
      "ண்டல": 4358,
      "ிகோ": 4359,
      "▁மேலா": 4360,
      "▁பண்டைய": 4361,
      "▁title=\"வ": 4362,
      "ினா": 4363,
      "ளவ": 4364,
      "▁வாக்க": 4365,
      "▁சுரு": 4366,
      "▁நூற்றாண்டு": 4367,
      "▁முன்பு": 4368,
      "ஷன்": 4369,
      "62": 4370,
      "▁ஆன்": 4371,
      "▁(P": 4372,
      "ின்றி": 4373,
      "▁சுக": 4374,
      "▁மித": 4375,
      "ேன்": 4376,
      "▁சுட்ட": 4377,
      "ிறன்": 4378,
      "▁சூன்": 4379,
      "▁தீர்மான": 4380,
      "ec": 4381,
      "ந்தா": 4382,
      "▁அவன்": 4383,
      "▁மேற்கொண்ட": 4384,
      "▁வம்ச": 4385,
      "மாத": 4386,
      "▁அடுத்து": 4387,
      "▁எசு": 4388,
      "்களின்": 4389,
      "▁ஆடி": 4390,
      "▁இதே": 4391,
      "▁பதவ": 4392,
      "ப்பட்டு,": 4393,
      "ச்சார": 4394,
      "▁சூலை": 4395,
      "மர": 4396,
      "▁அழைக்கப்படுகிறது.": 4397,
      "▁தாக்குத": 4398,
      "▁துவக்க": 4399,
      "br>\n": 4400,
      "▁நித": 4401,
      "ுக்கோ": 4402,
      "▁பில": 4403,
      "▁பத்து": 4404,
      "▁லி": 4405,
      "லாய": 4406,
      "ானா": 4407,
      "ராத": 4408,
      "▁(\"M": 4409,
      "▁நிருவாக": 4410,
      "கிழ": 4411,
      "▁ரச": 4412,
      "ரைப்": 4413,
      "52": 4414,
      "ீச": 4415,
      "▁கவு": 4416,
      "▁முந்தைய": 4417,
      "▁1990": 4418,
      "▁அதிகம்": 4419,
      "▁திருவண்ண": 4420,
      "▁கந்த": 4421,
      "▁பதிவ": 4422,
      "▁ஆண்": 4423,
      "ச்சே": 4424,
      "▁தொடர்ச்ச": 4425,
      "a)": 4426,
      "▁பங்கள": 4427,
      "▁ஆராய்ச்சி": 4428,
      "▁பிணை": 4429,
      "▁பெருங்க": 4430,
      "▁கீழே": 4431,
      "▁மொழிபெய": 4432,
      "▁இன்னும்": 4433,
      "▁மத்த": 4434,
      "▁பிப்ரவரி": 4435,
      "ப்பட்டுள்ளன.\n": 4436,
      "▁பயிர": 4437,
      "வர்,": 4438,
      "▁அடிப்படை": 4439,
      "▁உற்பத்த": 4440,
      "▁பரவலாக": 4441,
      "ச்சுவ": 4442,
      "வேலி": 4443,
      "பட்டி": 4444,
      "▁அண்ட": 4445,
      "▁அளித்த": 4446,
      "▁வயதில்": 4447,
      "▁சதவீ": 4448,
      "னது": 4449,
      "மாகும்.\n": 4450,
      "▁ஆவார்.\n": 4451,
      "▁என்றழைக்க": 4452,
      "னர்,": 4453,
      "▁பயன்படுக": 4454,
      "ானின்": 4455,
      "ர்ஸ்": 4456,
      "▁தற்போதைய": 4457,
      "▁in": 4458,
      "ிந்திய": 4459,
      "▁மூன்றாவது": 4460,
      "▁(\"K": 4461,
      "▁கூட்டு": 4462,
      "▁சிற்ப": 4463,
      "▁(\"P": 4464,
      "op": 4465,
      "ண்மையில்": 4466,
      "▁()": 4467,
      "▁விளங்கிய": 4468,
      "▁உரை": 4469,
      "▁சாம்ப": 4470,
      "▁எட்டு": 4471,
      "▁இந்நகர": 4472,
      "▁நேரம்": 4473,
      "ிக்கப்பட்டு": 4474,
      "▁உதவி": 4475,
      "▁பொழுது": 4476,
      "த்தோலிக்க": 4477,
      "ியைச்": 4478,
      "▁கடந்த": 4479,
      "ெயர்": 4480,
      "ப்பர": 4481,
      "▁\"எ": 4482,
      "ரசு": 4483,
      "ியா,": 4484,
      "67": 4485,
      "ணா": 4486,
      "▁மான": 4487,
      "▁காற்ற": 4488,
      "பாத்": 4489,
      "ொள்க": 4490,
      "▁எடுக்க": 4491,
      "▁அமைக்கப்பட்ட": 4492,
      "▁இத்திரைப்படத்தில்": 4493,
      "▁ஆழ": 4494,
      "ஸின்": 4495,
      "▁காட்சி": 4496,
      "▁இயல": 4497,
      "▁நெடுஞ்சாலை": 4498,
      "▁மிக்க": 4499,
      "▁அன்ன": 4500,
      "ட்சுமி": 4501,
      "iv": 4502,
      "ெனில்": 4503,
      "ப்பிட": 4504,
      "ொல": 4505,
      "னூர்": 4506,
      "ினோ": 4507,
      "▁ஆல்ப": 4508,
      "▁போக": 4509,
      "ரைய": 4510,
      "▁பயின்ற": 4511,
      "▁வார்த்த": 4512,
      "▁முடியா": 4513,
      "▁தோட்ட": 4514,
      "▁நியம": 4515,
      "▁ஆங்கிலேய": 4516,
      "ுகின்றது.": 4517,
      "▁எதிர்க": 4518,
      "▁வேத": 4519,
      "82": 4520,
      "▁பிடித்த": 4521,
      "ொட": 4522,
      "▁நேபாள": 4523,
      "▁ஆக்சி": 4524,
      "▁பண்": 4525,
      "▁பொருட்கள்": 4526,
      "▁அரங்க": 4527,
      "▁அறிவு": 4528,
      "▁ஆனால்,": 4529,
      "ளிர்": 4530,
      "▁ஆந்திர": 4531,
      "83": 4532,
      "▁வாகன": 4533,
      "▁வரையறுக்க": 4534,
      "53": 4535,
      "▁காட்ச": 4536,
      "ைகளாக": 4537,
      "வழ": 4538,
      "வதாக": 4539,
      "▁வளை": 4540,
      "57": 4541,
      "▁சிறுக": 4542,
      "▁நிறைவே": 4543,
      "▁பரு": 4544,
      "த்தாழ": 4545,
      "▁கத்தோலிக்க": 4546,
      "ினார்": 4547,
      "ப்புப்": 4548,
      "-அ": 4549,
      "▁விவரிக்க": 4550,
      "▁விய": 4551,
      "மிழ": 4552,
      "ிடு": 4553,
      "லீ": 4554,
      "▁t": 4555,
      "வள": 4556,
      "▁கட்சியின்": 4557,
      "▁அணு": 4558,
      "▁நெல்": 4559,
      "செய்ய": 4560,
      "▁(பிற": 4561,
      "▁வியா": 4562,
      "வருமாறு": 4563,
      "ராயண": 4564,
      "51": 4565,
      "▁கொண்டார்.": 4566,
      "மில்": 4567,
      "ரைக்": 4568,
      "▁ஆயுத": 4569,
      "▁மும்ப": 4570,
      "்டர்": 4571,
      "டியோ": 4572,
      "▁ஆகியவற்றின்": 4573,
      "ழ்வ": 4574,
      "▁பந்த": 4575,
      "க்கண": 4576,
      "ுக்களை": 4577,
      "ன,": 4578,
      "ப்படாத": 4579,
      "நிற": 4580,
      "்களுக்கு": 4581,
      "▁வந்தார்.": 4582,
      "▁வரிசை": 4583,
      "▁பாதுகாக்க": 4584,
      "ந்துள்ளது.": 4585,
      "▁நீக்க": 4586,
      "▁ஆல்": 4587,
      "▁சட்டம்": 4588,
      "▁இயேசு": 4589,
      "▁இரும்": 4590,
      "▁அக்": 4591,
      "▁சி.": 4592,
      "84": 4593,
      "ங்காட்சிய": 4594,
      "▁அமைய": 4595,
      "ையு": 4596,
      "ath": 4597,
      "▁மேம்படுத்த": 4598,
      "▁வில்லிய": 4599,
      "▁துறைமுக": 4600,
      "ொழுது": 4601,
      "ுவதில்": 4602,
      "த்திலேயே": 4603,
      "ப்பம்": 4604,
      "▁பின்பு": 4605,
      "வரான": 4606,
      "ியல்,": 4607,
      "▁என்கிற": 4608,
      "த்துறை": 4609,
      "▁சுற்றி": 4610,
      "94": 4611,
      "▁பயன்படுத்தப்படுகிறது.": 4612,
      "ாலம்": 4613,
      "▁செய்வ": 4614,
      "▁முஸ்": 4615,
      "▁திருநெல்": 4616,
      "▁ஒருநாள்": 4617,
      "▁கலந்த": 4618,
      "▁உடன்ப": 4619,
      "▁வர்த்தக": 4620,
      "▁ஆஸ்திரே": 4621,
      "▁சக": 4622,
      "ிற்கான": 4623,
      "▁நுட்ப": 4624,
      "▁கான்": 4625,
      "ப்படுகிறார்.": 4626,
      "பால்": 4627,
      "ாட்ச": 4628,
      "ங்குடி": 4629,
      "சியா": 4630,
      "போர்": 4631,
      "-ல்": 4632,
      "▁பழங்க": 4633,
      "▁பாய": 4634,
      "▁திருவிழா": 4635,
      "▁1980": 4636,
      "▁திரைப்படத்தில்": 4637,
      "னுடைய": 4638,
      "▁படுத்த": 4639,
      "▁2.": 4640,
      "ெட்ட": 4641,
      "ரசன்": 4642,
      "ையிலான": 4643,
      "ce": 4644,
      "க்கர்": 4645,
      "▁இயக்குந": 4646,
      "எஸ்": 4647,
      "த்தம்": 4648,
      "ிகர": 4649,
      "▁கணின": 4650,
      "▁நூலக": 4651,
      "▁இத்தால": 4652,
      "▁எட்ட": 4653,
      "▁கார": 4654,
      "ன்பது": 4655,
      "▁நின்ற": 4656,
      "▁முறையாக": 4657,
      "▁ஜனவரி": 4658,
      "61": 4659,
      "ிந்து": 4660,
      "▁அமெரிக்காவின்": 4661,
      "▁போரில்": 4662,
      "▁முதலாவது": 4663,
      "வாக்க": 4664,
      "▁இலங்கையில்": 4665,
      "▁ஊடக": 4666,
      "▁தயாரிப்ப": 4667,
      "ோட": 4668,
      "▁பாட்ட": 4669,
      "▁சிவக": 4670,
      "ேர்": 4671,
      "▁பத்த": 4672,
      "▁சுற்றுலா": 4673,
      "▁ஒருங்கிணை": 4674,
      "▁கலைஞ": 4675,
      "▁கல்வியறிவு": 4676,
      "ல்\n": 4677,
      "ையின": 4678,
      "ரோடு": 4679,
      "▁கிறிஸ்த": 4680,
      "▁அரை": 4681,
      "▁யான": 4682,
      "▁விளைவாக": 4683,
      "ுடனும்": 4684,
      "▁திருவண்ணாமலை": 4685,
      "ல்லூர்": 4686,
      "▁திறன்": 4687,
      "ர்கு": 4688,
      "விலான": 4689,
      "▁கிறித்தவ": 4690,
      "ிறான்.": 4691,
      "ிடமிருந்து": 4692,
      "▁விக்க": 4693,
      "▁மாற்றம்": 4694,
      "ென்ற": 4695,
      "▁n": 4696,
      "▁அருங்காட்சிய": 4697,
      "்தான்": 4698,
      "ப்பெற்ற": 4699,
      "ங்களால்": 4700,
      "▁கடின": 4701,
      "▁விகிதம்": 4702,
      "வண": 4703,
      "▁விதி": 4704,
      "▁எது": 4705,
      "ஹ்": 4706,
      "▁போர்த்த": 4707,
      "ீப": 4708,
      "87": 4709,
      "மங்கலம்": 4710,
      "ாரின்": 4711,
      "54": 4712,
      "▁ரயில்": 4713,
      "ப்பெருமாள்": 4714,
      "▁அனுபவ": 4715,
      "வரின்": 4716,
      "▁கி.பி.": 4717,
      "▁\"ம": 4718,
      "▁அடிக்க": 4719,
      "▁காஞ்சிபுரம்": 4720,
      "▁பணியாற்றிய": 4721,
      "▁ஏறத்தாழ": 4722,
      "ியலாள": 4723,
      "▁ஆலய": 4724,
      "▁2003": 4725,
      "▁பெரும்பான்": 4726,
      "▁உண்ண": 4727,
      "▁கொழ": 4728,
      "ொலி": 4729,
      "▁நெரு": 4730,
      "▁ஆள": 4731,
      "▁பூச": 4732,
      "▁எழுத்துக்க": 4733,
      "னைப்": 4734,
      "ராய்": 4735,
      "▁வானூர்தி": 4736,
      "▁கட்டுப்பாட்ட": 4737,
      "▁தூண்ட": 4738,
      "▁உரிமை": 4739,
      "ுவதற்காக": 4740,
      "▁ஒலிம்ப": 4741,
      "▁இவருடைய": 4742,
      "▁ஊக்க": 4743,
      "▁பலர்": 4744,
      "▁கோய": 4745,
      "போது,": 4746,
      "▁காள": 4747,
      "த்தார்.": 4748,
      "க்கள்": 4749,
      "▁பூச்ச": 4750,
      "நாதர்": 4751,
      "▁தங்கள": 4752,
      "▁ஆகத்து": 4753,
      "▁வளிம": 4754,
      "▁உலகப்": 4755,
      "▁தூர": 4756,
      "▁மரிய": 4757,
      "▁எழுத்தாள": 4758,
      "▁அவர்களது": 4759,
      "கே": 4760,
      "▁ஆட்சிய": 4761,
      ").\n": 4762,
      "▁எதிர்ம": 4763,
      "சன்ன": 4764,
      "▁நரம்ப": 4765,
      "▁2,": 4766,
      "▁பின்வருமாறு": 4767,
      "▁நன்கு": 4768,
      "முடிய": 4769,
      "ரியின்": 4770,
      "தோ": 4771,
      "▁அப": 4772,
      "▁உட்ப": 4773,
      "▁கிராமம்": 4774,
      "னியம்": 4775,
      "▁(T": 4776,
      "▁சமுத": 4777,
      "த்தள": 4778,
      "வின": 4779,
      "▁உள்ளூர்": 4780,
      "▁மதிப்பு": 4781,
      "▁title=\"ஜ": 4782,
      "▁ஜூன்": 4783,
      "ராக்": 4784,
      "▁கடற்ப": 4785,
      "▁உள்ளார்.": 4786,
      "▁சமுதாய": 4787,
      "ig": 4788,
      "81": 4789,
      "ிக்காக": 4790,
      "▁இசுலாமிய": 4791,
      "93": 4792,
      "▁கிராமக்": 4793,
      "ab": 4794,
      "ரி,": 4795,
      "ot": 4796,
      "ிந்த": 4797,
      "▁(ம": 4798,
      "ரிமை": 4799,
      "▁இருவரும்": 4800,
      "வகை": 4801,
      "▁காற்று": 4802,
      "▁நிறுவனங்கள்": 4803,
      "வில்லை.\n": 4804,
      "▁படைகள்": 4805,
      "▁பிரபலமான": 4806,
      "ிராம": 4807,
      "▁உணவ": 4808,
      "து;": 4809,
      "▁வாத": 4810,
      "▁அன்ற": 4811,
      "ள்வ": 4812,
      "▁ஊர்": 4813,
      "▁அறிக": 4814,
      "▁இருந்தன.": 4815,
      "▁\"ஆ": 4816,
      "▁வான்": 4817,
      "▁அருகே": 4818,
      "த்தீ": 4819,
      "டித்தார்.": 4820,
      "ராக்ச": 4821,
      "▁60": 4822,
      "▁அறிந்த": 4823,
      "▁சாத்திய": 4824,
      "கிப்த": 4825,
      "▁ஆகியன": 4826,
      "▁அறிஞ": 4827,
      "னுடன்": 4828,
      "திக": 4829,
      "▁உடை": 4830,
      "▁காப்ப": 4831,
      "▁நாட்கள்": 4832,
      "▁ஐரோப்ப": 4833,
      "▁அழைக்கப்படும்": 4834,
      "▁இவற்றின்": 4835,
      "▁விஜய": 4836,
      "ிருக்கிறது.": 4837,
      "மடைந்த": 4838,
      "த்தட்ட": 4839,
      "▁விப": 4840,
      "▁ஆதரவ": 4841,
      "மல்": 4842,
      "▁ஆய்": 4843,
      "ட்டு,": 4844,
      "▁காரணம்": 4845,
      "நிலைப்": 4846,
      "ிஸ்": 4847,
      "▁திராவிட": 4848,
      "ங்களும்,": 4849,
      "▁நோயாள": 4850,
      "▁குறிக்கும்.": 4851,
      "▁கிலோமீட்டர்": 4852,
      "தாகவும்,": 4853,
      "▁விளம்பர": 4854,
      "▁2002": 4855,
      "▁பத்": 4856,
      "▁தக்க": 4857,
      "ஞ்சிய": 4858,
      "ஸ்டர்": 4859,
      "▁கொண்டாட": 4860,
      "ல்லா": 4861,
      "▁நேரடியாக": 4862,
      "ையையும்": 4863,
      "▁முற்ப": 4864,
      "▁பொன்ன": 4865,
      "▁இதய": 4866,
      "ச்சூ": 4867,
      "▁தனிப்பட்ட": 4868,
      "▁விளையா": 4869,
      "ுகின்றன.\n": 4870,
      "▁ஏனைய": 4871,
      "▁பலரும்": 4872,
      "▁தொடர்ந்த": 4873,
      "▁தென்னா": 4874,
      "லாக்க": 4875,
      "ிகளும்,": 4876,
      "டுத்து": 4877,
      "▁யூத": 4878,
      "ிருப்பத": 4879,
      "▁நாம்": 4880,
      "▁எழுதப்பட்ட": 4881,
      "▁இணைந்த": 4882,
      "▁புகை": 4883,
      "▁எல": 4884,
      "▁31": 4885,
      "ுகிறது": 4886,
      "ேட்": 4887,
      "ாவிற்கு": 4888,
      "னல்": 4889,
      "▁சிவபெரு": 4890,
      "ைகளிலும்": 4891,
      "ட்டோ": 4892,
      "ராள": 4893,
      "-ப": 4894,
      "▁வழங்கிய": 4895,
      "▁நிகழ்த்த": 4896,
      "▁+": 4897,
      "ுக்கும்,": 4898,
      "▁பிரா": 4899,
      "த்திற்காக": 4900,
      "▁முத்த": 4901,
      "▁மண்ண": 4902,
      "ப்பிரமண": 4903,
      "▁தரவு": 4904,
      "▁மன்னர்": 4905,
      "ழ்ந்த": 4906,
      "▁தெரிவித்த": 4907,
      "ேர்ம": 4908,
      "ுவரர்": 4909,
      "▁பன்னாட்டுத்": 4910,
      "▁ஐய": 4911,
      "ிகளைப்": 4912,
      "▁என்பது,": 4913,
      "▁ஆர": 4914,
      "▁பிரதான": 4915,
      "தியில்": 4916,
      "▁வருவாய்": 4917,
      "ப்பள்ள": 4918,
      "ட்டில்": 4919,
      "▁கால்ப": 4920,
      "ிகளிலும்,": 4921,
      "்களும்": 4922,
      "19\"": 4923,
      "டைக": 4924,
      "▁பவு": 4925,
      "சல்": 4926,
      "▁நகை": 4927,
      "▁விற்பனை": 4928,
      "▁சாலை": 4929,
      "97": 4930,
      "▁எகிப்த": 4931,
      "▁திருநெல்வேலி": 4932,
      "▁குழந்தைகள்": 4933,
      "-இ": 4934,
      "▁இயக்கிய": 4935,
      "ர்களாக": 4936,
      "\"\n": 4937,
      "▁இல்லாமல்": 4938,
      "▁/": 4939,
      "▁மார்க": 4940,
      "▁வெள்ளை": 4941,
      "ட்சம்": 4942,
      "ுகளைப்": 4943,
      "▁வடிவமை": 4944,
      "யல்": 4945,
      "வான்": 4946,
      "▁சோதனை": 4947,
      "-இல்": 4948,
      "ர்ண": 4949,
      "ிக்கான": 4950,
      "▁id=\"20": 4951,
      "▁url=\"https://ta.wikipedia.org/wiki?curid=20": 4952,
      "▁தமிழர்": 4953,
      "ுகொள்ள": 4954,
      "லாந்த": 4955,
      "▁(\"T": 4956,
      "▁உலகில்": 4957,
      "த்தான": 4958,
      "மாண": 4959,
      "▁மரபு": 4960,
      "▁நடன": 4961,
      "▁அடைய": 4962,
      "▁இறப்பு:": 4963,
      "தீ": 4964,
      "▁விஷ": 4965,
      "ும்போ": 4966,
      "ேந்திர": 4967,
      "▁மலையாள": 4968,
      "நல": 4969,
      "ிறார்": 4970,
      "ுடை": 4971,
      "ாவுக்கு": 4972,
      "▁id=\"40": 4973,
      "▁url=\"https://ta.wikipedia.org/wiki?curid=40": 4974,
      "ஸ்கோ": 4975,
      "மதி": 4976,
      "▁நீளம்": 4977,
      "ுள்ளனர்.\n": 4978,
      "▁இப்போது": 4979,
      "▁சைவ": 4980,
      "தல்": 4981,
      "▁சிறி": 4982,
      "ாட்டை": 4983,
      "பார்": 4984,
      "▁பாய்": 4985,
      "▁பூம": 4986,
      "ின்றன,": 4987,
      "▁இங்கிலாந்த": 4988,
      "▁ஆகும்": 4989,
      "வழி": 4990,
      "▁பாக்க": 4991,
      "▁(1": 4992,
      "up": 4993,
      "பாடுகள": 4994,
      "▁வெப்பநிலை": 4995,
      "▁w": 4996,
      "tic": 4997,
      "im": 4998,
      "ுறையில்": 4999,
      "▁பணிபுரி": 5000,
      "ளுக்கு": 5001,
      "ொலை": 5002,
      "▁சவ": 5003,
      "▁பிரம்ம": 5004,
      "▁பின்வரும்": 5005,
      "▁மீட்ட": 5006,
      "ொருட": 5007,
      "ாக்கம்": 5008,
      "த்துப்": 5009,
      "▁திசம்பர்": 5010,
      "▁id=\"36": 5011,
      "▁url=\"https://ta.wikipedia.org/wiki?curid=36": 5012,
      "▁கவித": 5013,
      "ர்ஜ": 5014,
      "▁பொற": 5015,
      "▁ஈடுப": 5016,
      "▁என்.": 5017,
      "st": 5018,
      "▁பராம": 5019,
      "▁நாணய": 5020,
      "▁மாதிர": 5021,
      "▁வகைப்படுத்த": 5022,
      "▁கி.மு": 5023,
      "தான்": 5024,
      "▁id=\"33": 5025,
      "▁url=\"https://ta.wikipedia.org/wiki?curid=33": 5026,
      "▁அவற்றை": 5027,
      "▁திட": 5028,
      "▁நை": 5029,
      "▁ஏ-": 5030,
      "▁வித்த": 5031,
      "▁இளவ": 5032,
      "க்குழுவ": 5033,
      "▁புற்றுநோ": 5034,
      "ணிய": 5035,
      "ழிய": 5036,
      "ொன்று": 5037,
      "▁வைக": 5038,
      "▁1970": 5039,
      "▁இரட்டை": 5040,
      "▁உடன": 5041,
      "நிதி": 5042,
      "▁சௌ": 5043,
      "ரசி": 5044,
      "ow": 5045,
      "வுடன்": 5046,
      "▁வேள": 5047,
      "▁ஈர": 5048,
      "▁நெற": 5049,
      "▁புரிந்த": 5050,
      "▁வளர்ந்த": 5051,
      "ையிட": 5052,
      "▁தீவு": 5053,
      "▁செல்வ": 5054,
      "▁In": 5055,
      "y)": 5056,
      "▁தருக": 5057,
      "▁நேச": 5058,
      "ம்)": 5059,
      "▁கொல": 5060,
      "▁நம்பிக்க": 5061,
      "▁ஜூலை": 5062,
      "▁பின்பற்ற": 5063,
      "▁முக்கோண": 5064,
      "▁பதவி": 5065,
      "▁ஆதி": 5066,
      "▁முன்னணி": 5067,
      "மல்ல": 5068,
      "▁மாறிய": 5069,
      "▁மனைவி": 5070,
      "ல்களின்": 5071,
      "▁ஒன்றை": 5072,
      "▁அறிவித்த": 5073,
      "▁சக்தி": 5074,
      "க்கட்ட": 5075,
      "▁பணியாற்றினார்.": 5076,
      "▁நட்ச": 5077,
      "ாவிய": 5078,
      "▁வெங்க": 5079,
      "ப்புத்": 5080,
      "▁முதன்முத": 5081,
      "த்தன்மை": 5082,
      "▁எழுதி": 5083,
      "ர்.\n": 5084,
      "ுக்களின்": 5085,
      "▁என்றால்": 5086,
      "▁நடத்திய": 5087,
      "▁சோதன": 5088,
      "▁தேச": 5089,
      "▁இராஜ": 5090,
      "ண்டோ": 5091,
      "▁படத்தில்": 5092,
      "ப்பாட": 5093,
      "▁பசு": 5094,
      "▁மழை": 5095,
      "▁காலக": 5096,
      "▁கண்டறி": 5097,
      "▁ட்": 5098,
      "▁தம்ப": 5099,
      "க்குடி": 5100,
      "▁அடிப்படையாகக்": 5101,
      "ஸி": 5102,
      "▁அன்ப": 5103,
      "மை,": 5104,
      "▁போக்குவரத்து": 5105,
      "க்கலை": 5106,
      "ப்பொ": 5107,
      "▁திருத்தந்தை": 5108,
      "▁கட்டப்பட்ட": 5109,
      "▁அங்கீ": 5110,
      "▁போலவே": 5111,
      "னு": 5112,
      "▁நெருக்க": 5113,
      "ைக்கும்": 5114,
      "▁தன்னை": 5115,
      "தைப்": 5116,
      "▁துறையில்": 5117,
      "▁பொறுப்ப": 5118,
      "ev": 5119,
      "மக்கள்": 5120,
      "யண": 5121,
      "▁கருப்ப": 5122,
      "▁சிலர்": 5123,
      "▁பொறியியல்": 5124,
      "ng": 5125,
      "மைக்": 5126,
      "ையார்": 5127,
      "கத்தில்": 5128,
      "▁தக": 5129,
      "ப்படை": 5130,
      "▁ஆகியவற்றில்": 5131,
      "பாளையம்": 5132,
      "சிவ": 5133,
      "ன்ட": 5134,
      "▁கும்ப": 5135,
      "▁(B": 5136,
      "▁id=\"30": 5137,
      "▁url=\"https://ta.wikipedia.org/wiki?curid=30": 5138,
      "ஹா": 5139,
      "▁1960": 5140,
      "▁சட": 5141,
      "▁பாதிக்க": 5142,
      "ிருஷ்ண": 5143,
      "தாவது": 5144,
      "▁பரிசு": 5145,
      "ோள": 5146,
      "ராஜ்": 5147,
      "]]\n": 5148,
      "▁வில்லியம்": 5149,
      "▁மண்": 5150,
      "▁மக்கள்தொகை": 5151,
      "▁ஏற்று": 5152,
      "▁வேறுபட்ட": 5153,
      "▁ஓர": 5154,
      "▁பத்திரிக": 5155,
      "வர்களில்": 5156,
      "▁ஆலோ": 5157,
      "வேண்ட": 5158,
      "வையில்": 5159,
      "▁திருச்சப": 5160,
      "களில்": 5161,
      "▁மால": 5162,
      "ிக்கொண்ட": 5163,
      "ாட்டின்": 5164,
      "▁அரண்ம": 5165,
      "▁இருப்பினும்,": 5166,
      "ut": 5167,
      "மணி": 5168,
      "மிட்ட": 5169,
      "ற்றுள்": 5170,
      "▁கணினி": 5171,
      "▁அடித்த": 5172,
      "முறையில்": 5173,
      "▁ஈழ": 5174,
      "▁வேறுப": 5175,
      "பத": 5176,
      "▁கலி": 5177,
      "மாகப்": 5178,
      "▁பிரெஞ்சு": 5179,
      "▁பிற்ப": 5180,
      "▁அய்யனார்": 5181,
      "▁வலிய": 5182,
      "▁கிளை": 5183,
      "▁ஆற்றின்": 5184,
      "▁புராண": 5185,
      "மம்": 5186,
      "ிகளால்": 5187,
      "▁சாம": 5188,
      "ப்பட்டினம்": 5189,
      "▁திட்டம்": 5190,
      "▁பிறகு,": 5191,
      "▁எல்லை": 5192,
      "சர்": 5193,
      "▁நீர்ம": 5194,
      "▁நினைவு": 5195,
      "▁சிவகங்கை": 5196,
      "▁சர்": 5197,
      "▁அறிகுற": 5198,
      "ாகவே": 5199,
      "▁வானிய": 5200,
      "சக": 5201,
      "▁படம்": 5202,
      "▁அனைத்தும்": 5203,
      "ும்பு": 5204,
      "ண்டை": 5205,
      "00\"": 5206,
      "▁முன்னோ": 5207,
      "▁தாண்ட": 5208,
      "ங்கல்": 5209,
      "▁கதாபா": 5210,
      "▁இவரை": 5211,
      "▁ஏனெனில்": 5212,
      "▁இளை": 5213,
      "▁தெலுங்கு": 5214,
      "▁சுருக்க": 5215,
      "வற்றை": 5216,
      "▁சோவிய": 5217,
      "▁அறிக்க": 5218,
      "▁பயணம்": 5219,
      "▁ஆகஸ்ட்": 5220,
      "▁அமைத்த": 5221,
      "▁கிட்டத்தட்ட": 5222,
      "▁இளம்": 5223,
      "ுக்கல்": 5224,
      "▁வழங்கும்": 5225,
      "▁இச்சேர்ம": 5226,
      "ah": 5227,
      "டுகளின்": 5228,
      "ுதல்,": 5229,
      "▁உத்தர": 5230,
      "யோ": 5231,
      "▁முத்து": 5232,
      "▁முக்கியத்துவம்": 5233,
      "▁திரைப்படங்களில்": 5234,
      "▁சிறப்பாக": 5235,
      "மேற்கு": 5236,
      "▁காட்டு": 5237,
      "▁சிதை": 5238,
      "தாகும்.\n": 5239,
      "▁பதிலாக": 5240,
      "ருந்த": 5241,
      "▁80": 5242,
      "சில்": 5243,
      "▁சன்னதி": 5244,
      "ூற": 5245,
      "மாக,": 5246,
      "ிருந்தனர்.": 5247,
      "ெர்": 5248,
      "ிவிட்ட": 5249,
      "ான்.\n": 5250,
      "▁விருப்ப": 5251,
      "ாம்ப": 5252,
      "்டு": 5253,
      "ையர்": 5254,
      "▁செயல்படுத்த": 5255,
      "▁சது": 5256,
      "ுவையில்": 5257,
      "▁ஏழ": 5258,
      "▁கிடைக்கும்": 5259,
      "வதில்லை.": 5260,
      "▁title=\"உ": 5261,
      "▁கடைசி": 5262,
      "▁கிரிக்கட்": 5263,
      "-1": 5264,
      "▁தொகுதிய": 5265,
      "▁வசிக்க": 5266,
      "ிருத": 5267,
      "▁தென்னிந்திய": 5268,
      "▁வடிவில்": 5269,
      "▁2017": 5270,
      "வச": 5271,
      "▁ஒட்ட": 5272,
      "▁சிங்கள": 5273,
      "ாஸ்": 5274,
      "ன்றி": 5275,
      "▁கருத்துக்க": 5276,
      "சாலை": 5277,
      "யு": 5278,
      "▁எனினும்,": 5279,
      "▁இப்": 5280,
      "ப்பன்": 5281,
      "ச்சேரி": 5282,
      "▁எடுத்துக்": 5283,
      "▁திறந்த": 5284,
      "▁மூலக்கூற்று": 5285,
      "▁மூத்த": 5286,
      "▁முடியாத": 5287,
      "▁நிகழ்ந்த": 5288,
      "த்தொட": 5289,
      "▁தொகுப்பு": 5290,
      "ion": 5291,
      "▁என்பவரால்": 5292,
      "சுவ": 5293,
      "▁சந்தை": 5294,
      "▁(200": 5295,
      "▁இயேச": 5296,
      "▁டொ": 5297,
      "ைகளால்": 5298,
      "▁லே": 5299,
      "ிங்": 5300,
      "▁அமைக": 5301,
      "▁ஆப்": 5302,
      "▁முது": 5303,
      "ப்படுகின்றது.\n": 5304,
      "▁உருசிய": 5305,
      "பகு": 5306,
      "▁படி,": 5307,
      "▁தெரிவிக்க": 5308,
      "ரியம்": 5309,
      "▁வயத": 5310,
      "ிறு": 5311,
      "்டன்": 5312,
      "▁பெருக்க": 5313,
      "▁போத": 5314,
      "▁பயன்படுத்தப்படும்": 5315,
      "பிள்": 5316,
      "▁காணப்படும்.": 5317,
      "▁ரு": 5318,
      "I)": 5319,
      "▁மந்திர": 5320,
      "▁இந்தோ": 5321,
      "▁இருப்பது": 5322,
      "▁சாவ": 5323,
      "க்கால": 5324,
      "▁விழுப்பு": 5325,
      "▁மின்க": 5326,
      "▁உரிய": 5327,
      "▁சுல்த": 5328,
      "▁அமெரிக்கா": 5329,
      "▁இந்நூ": 5330,
      "▁நடித்தார்.": 5331,
      "▁ஒளிபர": 5332,
      "▁ஏவ": 5333,
      "ப்பட்டனர்.": 5334,
      "▁வெட்ட": 5335,
      "▁பயன்படும்": 5336,
      "ரையில்": 5337,
      "ia": 5338,
      "▁இந்தச்": 5339,
      "▁அதிகரி": 5340,
      "கம்,": 5341,
      "ங்கம்": 5342,
      "▁உபசன்ன": 5343,
      "▁இங்குள்ள": 5344,
      "▁மேலாண்மை": 5345,
      "▁வளாக": 5346,
      "▁திருவள்ள": 5347,
      "▁லோ": 5348,
      "ர்கோ": 5349,
      "▁ஜெர்மான": 5350,
      "ெல": 5351,
      "▁புரத": 5352,
      "ஒரு": 5353,
      "▁நகரின்": 5354,
      "▁முஸ்லி": 5355,
      "▁(ஆங்கில": 5356,
      "e\")": 5357,
      "கார": 5358,
      "▁வடிவம்": 5359,
      "▁பள்ளியில்": 5360,
      "▁புதுக்கோட்டை": 5361,
      "▁நடிகர்": 5362,
      "▁சுத்த": 5363,
      "▁இயக்கம்": 5364,
      "ிதழ்": 5365,
      "ல்கா": 5366,
      "பர்ட்": 5367,
      "மாகிய": 5368,
      "க்ட": 5369,
      "▁தொடங்கி": 5370,
      "▁முட்ட": 5371,
      "▁சரியான": 5372,
      "▁ஏ-தர": 5373,
      "ரியாக": 5374,
      "▁தனியார்": 5375,
      "த்ய": 5376,
      "▁ஜார்": 5377,
      "▁ஜி.": 5378,
      "ானி": 5379,
      "▁விலக": 5380,
      "ணியில்": 5381,
      "லத்தில்": 5382,
      "▁சமன்ப": 5383,
      "▁மைக்": 5384,
      "ம்புத்த": 5385,
      "▁பெரிதும்": 5386,
      "ணைக்க": 5387,
      "▁மீற்ற": 5388,
      "▁நேர்": 5389,
      "▁வேண்டும்.\n": 5390,
      "▁வரலாற்றில்": 5391,
      "▁திண்ட": 5392,
      "▁தன்மைய": 5393,
      "--": 5394,
      "▁டால": 5395,
      "ுவதற்கான": 5396,
      "நல்லூர்": 5397,
      "▁சேர": 5398,
      "▁சேலம்": 5399,
      "ளித": 5400,
      "ங்களைத்": 5401,
      "▁பாடல்கள": 5402,
      "ெடுக்க": 5403,
      "ிச்சி": 5404,
      "ியு": 5405,
      "▁அவர்களுக்கு": 5406,
      "▁கோல்": 5407,
      "▁தீர்த்த": 5408,
      "▁1999": 5409,
      "▁அம்": 5410,
      "▁காண்ப": 5411,
      "▁நேரங்களில்": 5412,
      "▁அறியப்பட்ட": 5413,
      "▁காதல்": 5414,
      "▁அணை": 5415,
      "▁போன": 5416,
      "ியாய": 5417,
      "▁பெற்றார்.\n": 5418,
      "▁மஞ்சள்": 5419,
      "▁இளைய": 5420,
      "▁நீர": 5421,
      "ாதே": 5422,
      "▁பகுதிகள": 5423,
      "▁மோச": 5424,
      "▁உள்நாட்டு": 5425,
      "ியப்": 5426,
      "▁வெளியேற்ற": 5427,
      "ers": 5428,
      "த்தில": 5429,
      "ுவதாக": 5430,
      "ிடும்": 5431,
      "ஃபோ": 5432,
      "▁தடுக்க": 5433,
      "த்தன்": 5434,
      "ாக்கள்": 5435,
      "லைத்": 5436,
      "முடைய": 5437,
      "ுகை": 5438,
      "▁மாணவர்கள்": 5439,
      "▁எவ்வாறு": 5440,
      "▁முதுக": 5441,
      "▁குரோ": 5442,
      "▁இருக்கும்.\n": 5443,
      "▁3.": 5444,
      "டுதல்": 5445,
      "▁மூலக்கூற": 5446,
      "▁காந்தி": 5447,
      "▁கிராமத்தில்": 5448,
      "▁இரவு": 5449,
      "▁இக்": 5450,
      "▁பாதிப்ப": 5451,
      "▁மொழிய": 5452,
      "▁அலெ": 5453,
      "வர்களை": 5454,
      "▁கான": 5455,
      "▁தோற்றுவ": 5456,
      "▁வாழ்ந்து": 5457,
      "லன்": 5458,
      "ியாகவும்": 5459,
      "▁இருக்கின்றன.": 5460,
      "▁தென்னாப்பிரிக்க": 5461,
      "ஸில்": 5462,
      "▁உலகம்": 5463,
      "▁நூல்கள": 5464,
      "▁பகுதிகளை": 5465,
      "ீட": 5466,
      "ிறுவ": 5467,
      "▁உறுதி": 5468,
      "▁முனைவர்": 5469,
      "நாயகர்": 5470,
      "ர்டு": 5471,
      "▁வழிவ": 5472,
      "▁உபயோக": 5473,
      "▁கோண": 5474,
      "▁நாளில்": 5475,
      "▁முடியும்": 5476,
      "▁க்க": 5477,
      "▁சீர்த": 5478,
      "▁குறுக": 5479,
      "▁வேண்டு": 5480,
      "எம்": 5481,
      "▁கல்வெட்ட": 5482,
      "▁உறுப்பினர்கள்": 5483,
      "▁சபை": 5484,
      "▁(I": 5485,
      "▁சக்கர": 5486,
      "ங்க்": 5487,
      "ud": 5488,
      "▁பாதிக்கப்பட்ட": 5489,
      "ண்டன்": 5490,
      "ப்படவில்லை.": 5491,
      "▁எளித": 5492,
      "▁அருள்": 5493,
      "▁செரு": 5494,
      "▁விலை": 5495,
      "ட்டம்": 5496,
      "▁குண்ட": 5497,
      "▁மீன்": 5498,
      "ுட்பட்ட": 5499,
      "▁பாக்கித்த": 5500,
      "▁பரிமாற்ற": 5501,
      "▁அடையாளம்": 5502,
      "▁கார்பன்": 5503,
      "▁சமயம்": 5504,
      "▁அப்போ": 5505,
      "▁நம்பிக்கை": 5506,
      "ொல்": 5507,
      "ஸ்\n": 5508,
      "▁1996": 5509,
      "ோ,": 5510,
      "▁(N": 5511,
      "▁பெயரிட": 5512,
      "▁ஏரி": 5513,
      "▁விழா": 5514,
      "ித்தல்": 5515,
      "ளுமன்ற": 5516,
      "▁பங்கே": 5517,
      ".க": 5518,
      "▁எட்": 5519,
      "ப்பூர்வ": 5520,
      "▁கதாபாத்திர": 5521,
      "▁நுக": 5522,
      "▁நட்சத்திர": 5523,
      "தைத்": 5524,
      "▁கடவுள்": 5525,
      "ள்ளை": 5526,
      "▁அடிக்கடி": 5527,
      "சு,": 5528,
      "▁கருதுக": 5529,
      "ph": 5530,
      "▁பண்ண": 5531,
      "▁இல்,": 5532,
      "விட்": 5533,
      "▁செயலாளர்": 5534,
      "ப்பதற்காக": 5535,
      "▁சோவியத்": 5536,
      "க்கூட": 5537,
      "▁$": 5538,
      "நாதபுரம்": 5539,
      "ராவார்.": 5540,
      "▁விழுப்புரம்": 5541,
      "-ம்": 5542,
      "டுக்கு": 5543,
      "▁மென்பொருள்": 5544,
      "▁மாதத்தில்": 5545,
      "ோள்": 5546,
      "▁அவற்றில்": 5547,
      "ரைத்": 5548,
      "த்துக்குடி": 5549,
      "▁மேற்பர": 5550,
      "▁விமர்சன": 5551,
      "ுக்களில்": 5552,
      "▁கட்டுமான": 5553,
      "ra": 5554,
      "ாப": 5555,
      "▁விண்ண": 5556,
      "ங்களுக்கும்": 5557,
      "▁கோட்ப": 5558,
      "▁முனிவ": 5559,
      "ிறந்த": 5560,
      "லோக": 5561,
      "▁பந்து": 5562,
      "▁போட்டிகளிலும்,": 5563,
      "▁முதன்மையான": 5564,
      "▁வின்": 5565,
      "நட": 5566,
      "ுல்": 5567,
      "▁இந்தியப்": 5568,
      "ப்பான்": 5569,
      "▁திரவ": 5570,
      "▁விவாத": 5571,
      "▁போரின்": 5572,
      "▁இடது": 5573,
      "▁படிக": 5574,
      "▁id=\"43": 5575,
      "▁url=\"https://ta.wikipedia.org/wiki?curid=43": 5576,
      "ிற்காக": 5577,
      "▁(\"C": 5578,
      "துவாக": 5579,
      "▁படிப்ப": 5580,
      "▁தொடரில்": 5581,
      "▁நூலில்": 5582,
      ".மீ": 5583,
      "ன்னி": 5584,
      "▁வளைய": 5585,
      "வர்களாக": 5586,
      "▁தொடங்கினார்.": 5587,
      "▁ஆல்க": 5588,
      "▁மாற்று": 5589,
      "▁அளவிலான": 5590,
      "▁கொள்கை": 5591,
      "▁செயல": 5592,
      "▁எண்ணெய்": 5593,
      "▁செயல்த": 5594,
      "▁செய்யப்பட்டது.": 5595,
      "▁சிறிது": 5596,
      "▁மாற்றிய": 5597,
      "▁நீல": 5598,
      "▁உறுப்பினர்": 5599,
      "▁ஒட்டு": 5600,
      "▁பெப்ரவரி": 5601,
      "▁பயன்படுகிறது.": 5602,
      "ov": 5603,
      "ொல்ல": 5604,
      "▁ம்": 5605,
      "▁தட்ட": 5606,
      "ங்கில்": 5607,
      "▁title=\"கு": 5608,
      "▁அடுக்க": 5609,
      "▁1998": 5610,
      "சுக": 5611,
      "ணர்": 5612,
      "த்திலும்,": 5613,
      "▁\"உ": 5614,
      "பாட": 5615,
      "▁தழுவ": 5616,
      "▁பாகிஸ்த": 5617,
      "▁கோள": 5618,
      "▁வளர்க்க": 5619,
      "▁அடங்கிய": 5620,
      "▁தரும்": 5621,
      "▁அவரின்": 5622,
      "▁நிறைந்த": 5623,
      "▁வலது": 5624,
      "▁இம்": 5625,
      "தி,": 5626,
      "▁புளோ": 5627,
      "பாய": 5628,
      "▁யோக": 5629,
      "ஷி": 5630,
      "▁வரத": 5631,
      "ப்பெய": 5632,
      "வி,": 5633,
      "▁காவல்": 5634,
      "▁அமைப்பின்": 5635,
      "வாகும்.": 5636,
      "▁அட்": 5637,
      "▁குடியேற்ற": 5638,
      "▁ஒலிம்பிக்": 5639,
      "ோல்": 5640,
      "ிப்படுத்த": 5641,
      "ும்படி": 5642,
      "▁ஆவர்.": 5643,
      "்சு": 5644,
      "▁வரவே": 5645,
      "▁பொருட்கள": 5646,
      "ோறும்": 5647,
      "ியக்க": 5648,
      "▁a": 5649,
      "ாதை": 5650,
      "▁அந்தப்": 5651,
      "▁பாராளுமன்ற": 5652,
      "▁வண்ட": 5653,
      "ாலா": 5654,
      "▁அவசிய": 5655,
      "▁நிறைவேற்ற": 5656,
      "▁(பிறப்பு:": 5657,
      "▁ஒன்பது": 5658,
      "▁வேலூர்": 5659,
      "▁(உ": 5660,
      "▁வழிமுற": 5661,
      "▁சென்னையில்": 5662,
      "▁எச்ச": 5663,
      "சுர": 5664,
      "▁கைது": 5665,
      "▁என்பதால்": 5666,
      "▁தொடங்கியது.": 5667,
      "்துறை": 5668,
      "▁சேமி": 5669,
      "▁அணுக்க": 5670,
      "▁உயரத்தில்": 5671,
      "▁ஆஸ்திரேலிய": 5672,
      "▁காட்டிலும்": 5673,
      "▁தென்கிழ": 5674,
      "டி.": 5675,
      "▁காலங்களில்": 5676,
      "▁தொழிற்ச": 5677,
      "ேற": 5678,
      "▁கழகம்": 5679,
      "▁வழியில்": 5680,
      "▁நிலுவையில்": 5681,
      "▁தூத்துக்குடி": 5682,
      "ருக்கான": 5683,
      "▁இலக்கண": 5684,
      "▁அனுமதி": 5685,
      "ர்ச": 5686,
      "▁(D": 5687,
      "▁(R": 5688,
      "▁இருந்தது.\n": 5689,
      "▁வெளியிடப்பட்ட": 5690,
      "▁பரப்பளவு": 5691,
      "மாற": 5692,
      "▁திசை": 5693,
      "▁கி.மீ.": 5694,
      "ாசி": 5695,
      "ர்\n": 5696,
      "▁புதின": 5697,
      "▁உண்மையான": 5698,
      "▁கோயம்புத்த": 5699,
      "▁மையம்": 5700,
      "▁அச்சு": 5701,
      "ப்படுகிறது,": 5702,
      "சி.": 5703,
      "▁முடிந்த": 5704,
      "கத்தின்": 5705,
      "▁பல்கலைக்கழகம்": 5706,
      "▁பிரச்சின": 5707,
      "ட்டின்": 5708,
      "▁எக்ஸ்": 5709,
      "▁வகைகள்": 5710,
      "▁கலாச்சார": 5711,
      "ிகார": 5712,
      "-த": 5713,
      "ுகளால்": 5714,
      "▁1989": 5715,
      "▁பேரரசின்": 5716,
      "ஷா": 5717,
      "▁70": 5718,
      "ூறு": 5719,
      "▁கடுமையான": 5720,
      "விர": 5721,
      "▁id=\"27": 5722,
      "▁url=\"https://ta.wikipedia.org/wiki?curid=27": 5723,
      "▁இராச": 5724,
      "ாடுகள்": 5725,
      "▁நகரத்தில்": 5726,
      "▁மண்டப": 5727,
      "லியா": 5728,
      "▁பயன்பாட்ட": 5729,
      "▁மகி": 5730,
      "▁ஆய்வுகள்": 5731,
      "▁கூடுதல்": 5732,
      "▁பரிசோ": 5733,
      "▁ஆவா": 5734,
      "டுகின்றன.": 5735,
      "▁ஏற்றுக்கொள்ள": 5736,
      "▁பாண்ட": 5737,
      "▁மீதான": 5738,
      "▁மக்களுக்கு": 5739,
      "▁விழு": 5740,
      "▁இயற்ற": 5741,
      "▁நிமிட": 5742,
      "▁நியமிக்கப்பட்ட": 5743,
      "▁தானிய": 5744,
      "தார": 5745,
      "▁எதிர்ப்பு": 5746,
      "▁1950": 5747,
      "ாளி": 5748,
      "த்திரே": 5749,
      "ித்துவ": 5750,
      "ப்பதில்": 5751,
      "ob": 5752,
      "▁மய": 5753,
      "▁பிரிட்டி": 5754,
      "▁கம்": 5755,
      "▁துரு": 5756,
      "▁போட்டி": 5757,
      "▁சுந்தர": 5758,
      "▁கேட்க": 5759,
      "பகுப்பு:": 5760,
      "▁தால": 5761,
      "▁தாம்": 5762,
      "▁ஏர்": 5763,
      "▁இயல்": 5764,
      "▁மைல்": 5765,
      "▁மாவ": 5766,
      "▁வருவ": 5767,
      "த்தினர்": 5768,
      "ையூர்": 5769,
      "▁கூறினார்.": 5770,
      "▁பரிச": 5771,
      "ே,": 5772,
      "ிவாச": 5773,
      "▁பாற": 5774,
      "▁பயன்படுத்தும்": 5775,
      "▁பெறும்": 5776,
      "▁அந்ந": 5777,
      "▁கார்த்த": 5778,
      "▁ஆண்கள": 5779,
      "ாட்டி": 5780,
      "▁ஆக்": 5781,
      "▁துல்லிய": 5782,
      "ழ்த்த": 5783,
      "ியும்,": 5784,
      "▁மாலை": 5785,
      "▁சுப்பிரமண": 5786,
      "▁வருமான": 5787,
      "▁அனைவரும்": 5788,
      "▁மருந்து": 5789,
      "னெ": 5790,
      "▁செய்தி": 5791,
      "பல்": 5792,
      "▁1991": 5793,
      "▁நீரில்": 5794,
      "ர்வீ": 5795,
      "▁பிரதேசச்": 5796,
      "▁கூடுதலாக": 5797,
      "நேர": 5798,
      "▁அதன்ப": 5799,
      "▁விரிவு": 5800,
      "▁இன்றும்": 5801,
      "▁கடவுள": 5802,
      "▁கார்ட": 5803,
      "▁படைப்ப": 5804,
      "▁3,": 5805,
      "▁துவங்க": 5806,
      "▁குறுக்க": 5807,
      "▁ஓய்வு": 5808,
      "▁அனுமதிக்க": 5809,
      "▁நீரா": 5810,
      "நெ": 5811,
      "▁வங்கி": 5812,
      "ரும்ப": 5813,
      "▁சோடியம்": 5814,
      "▁[[பகுப்பு:": 5815,
      "▁பிற்க": 5816,
      "ியைக்": 5817,
      "▁ஒழ": 5818,
      "▁\"தி": 5819,
      "▁ஜீ": 5820,
      "க்கப்பட்டு": 5821,
      "▁எனப்படும்.": 5822,
      "▁அரசியல": 5823,
      "all": 5824,
      "▁ஃப்": 5825,
      "க்கல": 5826,
      "▁அதிகரித்த": 5827,
      "சித்த": 5828,
      "▁இவன்": 5829,
      "▁நடைபெறுகிறது.": 5830,
      "ண்டா": 5831,
      "▁தொகுப்ப": 5832,
      "▁அமிலம்": 5833,
      "சூர்": 5834,
      "▁ஆயிர": 5835,
      "▁கவர்": 5836,
      "▁அவர்களை": 5837,
      "▁தொகையில்": 5838,
      "▁ஆளுந": 5839,
      "▁இறக்க": 5840,
      "ard": 5841,
      "▁கோப்ப": 5842,
      "▁வேட்ப": 5843,
      "(II": 5844,
      "▁வது": 5845,
      "ஸ்\">\n": 5846,
      "▁நாராயண": 5847,
      "▁டாக": 5848,
      "▁குளிர": 5849,
      "ரியும்": 5850,
      "ியாகும": 5851,
      "▁இப்போ": 5852,
      "▁மொழிகளில்": 5853,
      "▁தரு": 5854,
      "▁கையாள": 5855,
      "▁திரை": 5856,
      "▁அடர்த்தி": 5857,
      "▁தில்லி": 5858,
      "ெண்": 5859,
      "▁h": 5860,
      "▁தொல்ல": 5861,
      "▁வருகிறது.\n": 5862,
      "▁பெங்கள": 5863,
      "▁தலைமையில்": 5864,
      "ிகளுடன்": 5865,
      "▁கடி": 5866,
      "▁மைக்க": 5867,
      "▁ஒன்றான": 5868,
      "யன்": 5869,
      "▁தோல்விய": 5870,
      "▁சம்பந்த": 5871,
      "▁நிருவாகியால்": 5872,
      "வை,": 5873,
      "ப்பாற்ற": 5874,
      "▁உருவாக்கப்பட்டது.": 5875,
      "ேட்டு": 5876,
      "▁காக": 5877,
      "▁கட்டட": 5878,
      "▁வரைபட": 5879,
      "தற்காக": 5880,
      "▁விநாயகர்": 5881,
      "▁\",": 5882,
      "▁உறுப்ப": 5883,
      "ார்ப": 5884,
      "▁பெண்களின்": 5885,
      "▁போரா": 5886,
      "▁பேச்ச": 5887,
      "ர்களைக்": 5888,
      "▁கர்நாடக": 5889,
      "▁பகி": 5890,
      "ர்சி": 5891,
      "▁அயன": 5892,
      "நாட": 5893,
      "▁பாடல்களை": 5894,
      "▁பிரதம": 5895,
      "▁ஒழுங்கு": 5896,
      "▁நன்ன": 5897,
      "▁அங்கே": 5898,
      "▁பகுப்பா": 5899,
      "ப்பட்டிருந்த": 5900,
      "▁நாகப்பட்டினம்": 5901,
      "▁உயரம்": 5902,
      "▁1994": 5903,
      "சர": 5904,
      "ுக்குள்": 5905,
      "▁பகுதியை": 5906,
      "ன்களை": 5907,
      "▁(H": 5908,
      "ஞ்ஞான": 5909,
      "ையாளர்": 5910,
      "▁இசைக்க": 5911,
      "▁நிறைவு": 5912,
      "மைப்": 5913,
      "▁நிலையான": 5914,
      "நாயக்க": 5915,
      "▁அண்ட்": 5916,
      "▁வேட்ட": 5917,
      "லையும்": 5918,
      "▁எளிய": 5919,
      "▁உள்ளன": 5920,
      "ர்களுடன்": 5921,
      "▁வலுவ": 5922,
      "போல": 5923,
      "▁நிர்": 5924,
      "▁வேதி": 5925,
      "▁எழ": 5926,
      "▁பெற்றோ": 5927,
      "்டின்": 5928,
      "▁நார்": 5929,
      "▁(G": 5930,
      "▁நாமக்க": 5931,
      "▁உரிமைய": 5932,
      "▁பதி": 5933,
      "▁வன்": 5934,
      "▁அவள்": 5935,
      "▁வானொலி": 5936,
      "வல": 5937,
      "▁விளையாடி": 5938,
      "▁Ch": 5939,
      "▁போற்ற": 5940,
      "▁நிலையை": 5941,
      "▁மகள": 5942,
      "▁ஏற்பட்டது.": 5943,
      "டிக்": 5944,
      "வேண்டும்": 5945,
      "▁அமையும்": 5946,
      "▁முறைகள்": 5947,
      "<br>\n": 5948,
      "ைகளுடன்": 5949,
      "▁விவர": 5950,
      "ீடுகள்": 5951,
      "க்குழு": 5952,
      "▁கட்டாய": 5953,
      "▁வானியல்": 5954,
      "▁மயில": 5955,
      "ட்ரோ": 5956,
      "▁இயற்பியல்": 5957,
      "▁முருகன்": 5958,
      "யிர்": 5959,
      "per": 5960,
      "ங்களுள்": 5961,
      "▁பூங்கா": 5962,
      "திகளும்": 5963,
      "▁சேக": 5964,
      "ww": 5965,
      "▁படித்த": 5966,
      "▁நாட்க": 5967,
      "▁தாக்குதல்": 5968,
      "வு,": 5969,
      "▁இதழ்": 5970,
      "▁கிருஷ்ணகிரி": 5971,
      "▁வேட": 5972,
      "▁பெயர": 5973,
      "▁புனை": 5974,
      "▁விநாயக": 5975,
      "ினர்.\n": 5976,
      "▁புரிந்து": 5977,
      "னவே": 5978,
      "▁முடித்த": 5979,
      "▁பயன்பாடு": 5980,
      "ும்போது,": 5981,
      "ல்ஸ்": 5982,
      "லாம்,": 5983,
      "▁title=\"செ": 5984,
      "▁குறிக்கும்": 5985,
      "▁முழுமையான": 5986,
      "▁பொருட்களை": 5987,
      "ங்கல": 5988,
      "▁நியூயா": 5989,
      "▁கொண்டுள்ளது.\n": 5990,
      "▁கண்டுபிடித்த": 5991,
      "்டீ": 5992,
      "ங்களான": 5993,
      "▁மிகச்": 5994,
      "த்திற்குப்": 5995,
      "ீழ": 5996,
      "்கோ": 5997,
      "▁சார": 5998,
      "▁எம்": 5999,
      "▁நேர்ம": 6000,
      "▁ரீதியாக": 6001,
      "த்தான்": 6002,
      "க்கிர": 6003,
      "▁சற்று": 6004,
      "▁மாகாணத்தில்": 6005,
      "▁காங்கிரஸ்": 6006,
      "▁(ஆங்கிலம்:": 6007,
      "▁மாவட்டங்களில்": 6008,
      "▁ஈரோடு": 6009,
      "▁சிவாகம": 6010,
      "ெல்லாம்": 6011,
      "ாகும்": 6012,
      "▁இருந்தது": 6013,
      "ுவதன்": 6014,
      "▁இன்றைய": 6015,
      "▁மேலே": 6016,
      "பிக்": 6017,
      "ளாவிய": 6018,
      "த்திரி": 6019,
      "▁குறுகிய": 6020,
      "▁வருகிறார்.": 6021,
      "ாலயம்": 6022,
      "▁பாராட்ட": 6023,
      "▁ஷா": 6024,
      "நித": 6025,
      "மேன்": 6026,
      "▁வாய்ப்பாடு": 6027,
      "பூர்வ": 6028,
      "▁சரண": 6029,
      "ுவிட்ட": 6030,
      "லும்பு": 6031,
      "ரிட்ட": 6032,
      "▁பேருந்து": 6033,
      "▁கடத்த": 6034,
      "வதை": 6035,
      "▁விண்வெளி": 6036,
      "ியுடன்": 6037,
      "▁சர்க்க": 6038,
      "▁சிறப்பான": 6039,
      "ங்கோலிய": 6040,
      "▁எதிர்பா": 6041,
      "▁கன்னியாகும": 6042,
      "▁சுற்றுச்சூ": 6043,
      "▁சாய": 6044,
      "ட்ஸ்": 6045,
      "▁வடகிழ": 6046,
      "ப்பொருள்": 6047,
      "▁படிக்க": 6048,
      "▁உரையா": 6049,
      "ல்லது": 6050,
      "▁பாலை": 6051,
      "ிக்குப்": 6052,
      "ச்சா": 6053,
      "▁வாயில": 6054,
      "▁மெய்": 6055,
      "▁அமைப்புகள்": 6056,
      "▁ஆரம்பத்தில்": 6057,
      "▁0.": 6058,
      "▁ஜார்ஜ்": 6059,
      "▁திருச்சிரா": 6060,
      "▁அசை": 6061,
      "▁எதுவும்": 6062,
      "▁கண்": 6063,
      "ுகளுடன்": 6064,
      "▁அந்தக்": 6065,
      "▁கொள்ளும்": 6066,
      "▁கிமு": 6067,
      "t)": 6068,
      "த்தீன்": 6069,
      "▁1992": 6070,
      "▁id=\"4": 6071,
      "▁url=\"https://ta.wikipedia.org/wiki?curid=4": 6072,
      "▁ரொ": 6073,
      "▁தர்மபுரி": 6074,
      "வேக": 6075,
      "ேசன்": 6076,
      "ip": 6077,
      "எல்": 6078,
      "▁ஆகும்,": 6079,
      "-ஆ": 6080,
      "ட்டுப்": 6081,
      "▁நிலப்பர": 6082,
      "வுக்கு": 6083,
      "▁தொடர்வ": 6084,
      "மாய்": 6085,
      "▁சீர": 6086,
      "▁கிழக்க": 6087,
      "விக": 6088,
      "▁இருந்தால்": 6089,
      "▁வேளாண்மை": 6090,
      "மைச்ச": 6091,
      "▁கொலை": 6092,
      "▁இரயில்": 6093,
      "▁பேரரசு": 6094,
      "வருக்கும்": 6095,
      "நாக": 6096,
      "க்கல்": 6097,
      "ப்பும்": 6098,
      "▁காலப்": 6099,
      "▁அறிமுகமான": 6100,
      "ைக்கான": 6101,
      "▁செலு": 6102,
      "▁வழக்கமாக": 6103,
      "uc": 6104,
      "டு,": 6105,
      "்ச்": 6106,
      "ாக்ச": 6107,
      "▁முழுமையாக": 6108,
      "▁ஒற்றை": 6109,
      "டிகள்": 6110,
      "▁முறையே": 6111,
      "பக": 6112,
      "▁•": 6113,
      "▁id=\"13": 6114,
      "▁url=\"https://ta.wikipedia.org/wiki?curid=13": 6115,
      "▁நபர்கள்": 6116,
      "▁உண்டாக்க": 6117,
      "த்துச்": 6118,
      "ாமல்,": 6119,
      "ப்படுத்தப்பட்ட": 6120,
      "ஸ்தான்": 6121,
      "▁வெளியேற": 6122,
      "வால்": 6123,
      "▁பட்டியலில்": 6124,
      "▁மத்தியில்": 6125,
      "ுவர்.": 6126,
      "▁கொண்டிருக்கும்": 6127,
      "▁1997": 6128,
      "▁சித்திரை": 6129,
      "▁குறியீடு": 6130,
      "ர்\"": 6131,
      "ess": 6132,
      "▁செங்கு": 6133,
      "▁உயர்த்த": 6134,
      "ொழி": 6135,
      "▁முர": 6136,
      "▁வழிக": 6137,
      "ிக்கப்பட்டது.\n": 6138,
      "▁க்கு": 6139,
      "டுவது": 6140,
      "ுடனான": 6141,
      "▁கடந்து": 6142,
      "▁அணிக்கு": 6143,
      "ப்பிரிவ": 6144,
      "▁எழுத்தாளர்": 6145,
      "▁வெற்றிகர": 6146,
      "ா்.": 6147,
      "▁எப்போ": 6148,
      "▁1995": 6149,
      "▁கோட்பாடு": 6150,
      "ங்கே": 6151,
      "க்ஸ": 6152,
      "▁கொண்டதாக": 6153,
      "▁மார்ச்சு": 6154,
      "▁டு": 6155,
      "▁இவ்வகை": 6156,
      "வைப்": 6157,
      "▁”": 6158,
      "த்தது.": 6159,
      "தியும்": 6160,
      "▁மைக்ரோ": 6161,
      "▁e": 6162,
      "▁சிறை": 6163,
      "▁மின்சார": 6164,
      "▁செயல்பட்ட": 6165,
      "▁°": 6166,
      "▁இங்கே": 6167,
      "மைப்பின்": 6168,
      "▁90": 6169,
      "▁(18": 6170,
      "ரைச்": 6171,
      "▁பயன்படுத்திய": 6172,
      "▁நாட்களில்": 6173,
      "▁இன்னொரு": 6174,
      "▁வள்ள": 6175,
      "▁நகரத்தின்": 6176,
      "▁எழுந்த": 6177,
      "▁இரண்டும்": 6178,
      "▁வாய்ப்பு": 6179,
      "▁வெளியிடப்பட்டது.": 6180,
      "▁அலங்க": 6181,
      "விலும்": 6182,
      "▁எடை": 6183,
      "டைந்து": 6184,
      "பட்ச": 6185,
      "செய்த": 6186,
      "ீஸ்வரர்": 6187,
      "▁\"ஹ": 6188,
      "ழிப்பு": 6189,
      "▁இறந்து": 6190,
      "னும்,": 6191,
      "மாவ": 6192,
      "▁பின": 6193,
      "ரியல்": 6194,
      "ஜன்": 6195,
      "▁சல்ப": 6196,
      "▁சிவப்பு": 6197,
      "▁விடுதலைப்": 6198,
      "▁நாமக்கல்": 6199,
      "மைகள்": 6200,
      "▁35": 6201,
      "▁உருவாகும்": 6202,
      "▁அரசியல்வாதி": 6203,
      "ோடு,": 6204,
      "▁id=\"12": 6205,
      "▁url=\"https://ta.wikipedia.org/wiki?curid=12": 6206,
      "முனை": 6207,
      "▁இஸ்லாமிய": 6208,
      "டின்": 6209,
      "மையின்": 6210,
      "▁உடல": 6211,
      "▁வல்லு": 6212,
      "▁ரூபாய்": 6213,
      "▁&": 6214,
      "▁களில்": 6215,
      "துறை": 6216,
      "ச்செ": 6217,
      "▁1947": 6218,
      "▁இது,": 6219,
      "▁மிகுத": 6220,
      "▁ஒன்றியம்": 6221,
      "▁பழமையான": 6222,
      "▁1984": 6223,
      "▁வங்காளதேச": 6224,
      "ூப": 6225,
      "▁இவ்வாற": 6226,
      "▁கனட": 6227,
      "▁மதி": 6228,
      "▁ஒன்றில்": 6229,
      "▁சதவீத": 6230,
      "▁வழங்கி": 6231,
      "▁நேரடி": 6232,
      "▁பூர்": 6233,
      "▁(E": 6234,
      "ப்படுகின்றன": 6235,
      "▁பட்டியல": 6236,
      "▁திட்டமிட": 6237,
      "இந்த": 6238,
      "▁கங்க": 6239,
      "▁ஃபெ": 6240,
      "▁சென்றார்.": 6241,
      "கங்கள்": 6242,
      "\".": 6243,
      "ங்கொ": 6244,
      "▁வெள்ளி": 6245,
      "க்குழ": 6246,
      "▁திரி": 6247,
      "வையாகும்.": 6248,
      "▁வீழ்ச்ச": 6249,
      "▁அகற்ற": 6250,
      "▁அடங்கும்.": 6251,
      "▁திருவள்ளூர்": 6252,
      "ராட்ச": 6253,
      "ல்லூ": 6254,
      "▁நடிகை": 6255,
      "▁நூல்களை": 6256,
      "▁ஆதிக்க": 6257,
      "ub": 6258,
      "▁இவற்றை": 6259,
      "பொருள்": 6260,
      "▁இருக்கலாம்.": 6261,
      "▁சீக்கிய": 6262,
      "முன": 6263,
      "▁வரையிலான": 6264,
      "▁சான்": 6265,
      "▁இருந்தனர்.": 6266,
      "▁கிளா": 6267,
      "▁ஆனது": 6268,
      "qu": 6269,
      "▁தோற்க": 6270,
      "ாடுகள": 6271,
      "▁சீனா": 6272,
      "▁முதலான": 6273,
      "▁பரிந்துரை": 6274,
      "லூ": 6275,
      "▁திண்டுக்கல்": 6276,
      "▁ஆகவும்": 6277,
      "▁துப்பாக்க": 6278,
      "▁2018": 6279,
      "▁விஞ்ஞான": 6280,
      "▁தமிழ்ப்": 6281,
      "▁துன்ப": 6282,
      "ாயி": 6283,
      "▁முயற்சிய": 6284,
      "பொருள": 6285,
      "▁4.": 6286,
      "▁பிள்ளை": 6287,
      "-0": 6288,
      "னிக்": 6289,
      "ாவ்": 6290,
      "லிச": 6291,
      "▁மோக": 6292,
      "▁செய்யப்பட்டு": 6293,
      "▁வருகின்றன.": 6294,
      "ீஸ்": 6295,
      "ist": 6296,
      "▁ஆப்க": 6297,
      "ட்டும்": 6298,
      "▁சுரங்க": 6299,
      "▁id=\"8": 6300,
      "▁url=\"https://ta.wikipedia.org/wiki?curid=8": 6301,
      "e)\"": 6302,
      "வையும்": 6303,
      "ர்த்": 6304,
      "ஷ்ய": 6305,
      "▁மொழிகள்": 6306,
      "▁நடவடிக்கை": 6307,
      "▁கடன்": 6308,
      "▁தனக்கு": 6309,
      "ூல": 6310,
      "▁சஞ்ச": 6311,
      "▁விசை": 6312,
      "▁வேற": 6313,
      "▁இதர": 6314,
      "▁அமைந்துள்ளன.": 6315,
      "லக்ட்": 6316,
      "▁அணிய": 6317,
      "▁(திரைப்படம்)\n": 6318,
      "▁g": 6319,
      "▁உறவு": 6320,
      "▁(திரைப்படம்)\">\n": 6321,
      "ப்புச்": 6322,
      "▁நிலவ": 6323,
      "▁பணம்": 6324,
      "▁குடும்பத்தில்": 6325,
      "▁காவல்த": 6326,
      "▁தங்கிய": 6327,
      "▁மூட": 6328,
      "▁1993": 6329,
      "ுவாச": 6330,
      "▁பதிப்பு": 6331,
      "▁நந்த": 6332,
      "▁நான்காவது": 6333,
      "ின்றார்.": 6334,
      "ிப்பது": 6335,
      "ேயான": 6336,
      "▁புதி": 6337,
      "ஸ்ஸ": 6338,
      "▁title=\"பெ": 6339,
      "▁பிரிட்டிஷ்": 6340,
      "மனை": 6341,
      "ளூ": 6342,
      "▁v": 6343,
      "ுறவு": 6344,
      "▁title=\"பு": 6345,
      "▁குறு": 6346,
      "▁எடுக்கப்பட்ட": 6347,
      "வந்த": 6348,
      "▁வழங்கப்பட்டது.": 6349,
      "▁வைர": 6350,
      "▁ஆங்கிலத்தில்": 6351,
      "▁ஞ": 6352,
      "▁பான": 6353,
      "த்தையும்,": 6354,
      "ுள்ளது": 6355,
      "▁வெற்றிய": 6356,
      "▁மிகக்": 6357,
      "▁ஹொ": 6358,
      "▁எசுப்பானிய": 6359,
      "குந்த": 6360,
      "டையும்": 6361,
      "▁எரு": 6362,
      "▁தெரிக": 6363,
      "ினைப்": 6364,
      "▁மன்னன்": 6365,
      "▁தவிர்க்க": 6366,
      "▁மலா": 6367,
      "▁இதுவரை": 6368,
      "▁கணக்கெடுப்பின்படி": 6369,
      "▁(நூல்": 6370,
      "மானிய": 6371,
      "ற்றுப்": 6372,
      "▁இருந்தாலும்": 6373,
      "▁வடிவமைப்ப": 6374,
      ".கா": 6375,
      "ணித": 6376,
      "ாற்ற": 6377,
      "்க்கு": 6378,
      "▁அறுவை": 6379,
      "▁1987": 6380,
      "ியோக": 6381,
      "த்ரா": 6382,
      "▁இக்கோயில": 6383,
      "▁கூறுகிற": 6384,
      "▁இரும்பு": 6385,
      "மேற்க": 6386,
      "▁எப்படி": 6387,
      "▁மகள்": 6388,
      "மாகத்": 6389,
      "▁வலைய": 6390,
      "▁பென்": 6391,
      "▁ராஜ்": 6392,
      "▁அளவுக்கு": 6393,
      "▁கடற்கரை": 6394,
      "▁செங்க": 6395,
      "ிருக்கிறார்.": 6396,
      "ணாம": 6397,
      "பாக": 6398,
      "▁32": 6399,
      "▁சூட": 6400,
      "ிவ்": 6401,
      "▁எழுது": 6402,
      "▁முடிக": 6403,
      "ச்சந்திர": 6404,
      "ஸ்தான": 6405,
      "▁புலவர்": 6406,
      "ட்,": 6407,
      "நாட்டில்": 6408,
      "▁உருவாக்கும்": 6409,
      "▁கண்காண": 6410,
      "டியில்": 6411,
      "▁குறிக்கிறது.": 6412,
      "▁நடைபெற்றது.": 6413,
      "▁டேவிட்": 6414,
      "▁வித்தியா": 6415,
      "▁(L": 6416,
      "▁விழுக்க": 6417,
      "ப்படுத்தும்": 6418,
      "▁மங்கோலிய": 6419,
      "▁இதழ்க": 6420,
      "▁வட்டார": 6421,
      "டிக": 6422,
      "▁ஒளிய": 6423,
      "▁இயற்றிய": 6424,
      "தைய": 6425,
      "▁வளர": 6426,
      "▁இருபது": 6427,
      "▁ஆண்டு,": 6428,
      "ித்து,": 6429,
      "▁கவிதை": 6430,
      "▁அழைக்கப்பட்ட": 6431,
      "▁போட்டியிட்டு": 6432,
      "▁சன்னதிகள்": 6433,
      "▁போன்றவற்றை": 6434,
      "ளைக்": 6435,
      "▁ஆச": 6436,
      "▁செய்யப்படும்": 6437,
      "▁கணக்கிட": 6438,
      "▁தொடர்ச்சியாக": 6439,
      "▁நடத்தி": 6440,
      "▁கருப்பு": 6441,
      "▁பொறுத்து": 6442,
      "▁உண்மையில்": 6443,
      "▁வழக்கம்": 6444,
      "▁இந்தியா,": 6445,
      "▁கோயம்புத்தூர்": 6446,
      "▁இலா": 6447,
      "▁சிவா": 6448,
      "▁குக": 6449,
      "▁கோல": 6450,
      "பாடுகளை": 6451,
      "▁பீட": 6452,
      "▁ஹை": 6453,
      "▁கலவ": 6454,
      "▁500": 6455,
      "▁வீரர்": 6456,
      "▁இத்திரைப்படம்": 6457,
      "▁ஐதரசன்": 6458,
      "ூரின்": 6459,
      "▁கோபுர": 6460,
      "க்குச்": 6461,
      "▁பிறப்பு": 6462,
      "▁பிரான்சி": 6463,
      "த்தல": 6464,
      "வதால்": 6465,
      "▁கட்டி": 6466,
      "▁பஞ்சாப்": 6467,
      "▁1977": 6468,
      "ங்களில்,": 6469,
      "▁நடைபெறும்": 6470,
      "▁தள்ள": 6471,
      "ிக்கிறது.": 6472,
      "▁சமீப": 6473,
      "▁செயல்முற": 6474,
      "ிஸ்ட": 6475,
      "▁பிரேச": 6476,
      "▁உலகளாவிய": 6477,
      "▁உதவும்": 6478,
      "▁இரச": 6479,
      "▁இந்தி": 6480,
      "ங்கள்\n": 6481,
      "▁ஸ": 6482,
      "▁மரம்": 6483,
      "ப்ர": 6484,
      "ிப்பை": 6485,
      "▁பரவிய": 6486,
      "▁நினைவ": 6487,
      "வடிவ": 6488,
      "ர்\">\n": 6489,
      "▁செம்ப": 6490,
      "▁180": 6491,
      "▁ஆர்வம்": 6492,
      "▁(20": 6493,
      "▁குன்ற": 6494,
      "▁மதுர": 6495,
      "▁கன்னியாகுமரி": 6496,
      "▁உயிரண": 6497,
      "▁வரிசையில்": 6498,
      "ிடத்தில்": 6499,
      "▁தலைநக": 6500,
      "ேற்றம்": 6501,
      "▁இருப்பதாக": 6502,
      "ாரும்": 6503,
      "ப்புக்கு": 6504,
      "▁நினைவாக": 6505,
      "▁அறிந்து": 6506,
      "மேல்": 6507,
      "▁சங்கம்": 6508,
      "▁படத்தின்": 6509,
      "ைகளைத்": 6510,
      "▁திருவார": 6511,
      "ity": 6512,
      "▁ஒழுங்க": 6513,
      "▁க்கும்": 6514,
      "-2": 6515,
      "▁title=\"கோ": 6516,
      "▁1988": 6517,
      "▁ரை": 6518,
      "▁குடும்பம்": 6519,
      "▁ஜேம்ஸ்": 6520,
      "▁துண்ட": 6521,
      "▁வளர்த்த": 6522,
      "▁75": 6523,
      "ர்க்கு": 6524,
      "▁மாகாணத்தின்": 6525,
      "▁கதி": 6526,
      "▁ஆயிரம்": 6527,
      "▁விண்மீன்": 6528,
      "▁தண்ணீர்": 6529,
      "▁பர்": 6530,
      "ானது,": 6531,
      "ிற்குப்": 6532,
      "▁தயாரித்த": 6533,
      "▁புவி": 6534,
      "▁கவனம்": 6535,
      "▁எளிதில்": 6536,
      "ியலின்": 6537,
      "▁பூங்க": 6538,
      "▁பங்கேற்ற": 6539,
      "▁உள்ளடக்க": 6540,
      "பெருமாள்": 6541,
      "▁கட்டுரைகள்": 6542,
      "▁தச": 6543,
      "▁அப்த": 6544,
      "▁மக்களால்": 6545,
      "▁சித்திர": 6546,
      "▁விற்பன": 6547,
      "▁தகுத": 6548,
      "▁வெளியாக": 6549,
      "▁வருடம்": 6550,
      "▁குரல்": 6551,
      "▁கொண்டுள்ளன.": 6552,
      "▁சராசரியாக": 6553,
      "ஜிய": 6554,
      "ழைய": 6555,
      "ப்படுவ": 6556,
      "▁மருத்துவமன": 6557,
      "ிடுகிறது.": 6558,
      "ிருந்தனர்.\n": 6559,
      "▁மீற்றர்": 6560,
      "com": 6561,
      "▁X": 6562,
      "நாத்": 6563,
      "▁அழைத்த": 6564,
      "▁கொழும்பு": 6565,
      "த்துக்கான": 6566,
      "▁வாய்ப்ப": 6567,
      "▁சீர்திருத்த": 6568,
      "பவர்கள்": 6569,
      "▁தியாக": 6570,
      "▁பிண": 6571,
      "▁குடியரசுத்": 6572,
      "▁உண்மை": 6573,
      "▁ஊட்ட": 6574,
      "▁வளர்ந்து": 6575,
      "▁பெயரை": 6576,
      "ell": 6577,
      "லாத": 6578,
      "ண்டு.": 6579,
      "▁சுற்றிய": 6580,
      "▁எலக்ட்": 6581,
      "ிறாள்.": 6582,
      "▁ஏராள": 6583,
      "▁இவர்,": 6584,
      "▁காணப்பட்ட": 6585,
      "▁id=\"29": 6586,
      "▁url=\"https://ta.wikipedia.org/wiki?curid=29": 6587,
      "▁இயங்கும்": 6588,
      "▁கருவி": 6589,
      "▁கலிபோர்": 6590,
      "]\n": 6591,
      "நேய": 6592,
      "▁அலி": 6593,
      "▁ஆத்திரே": 6594,
      "▁ஒருவராக": 6595,
      "▁மாறி": 6596,
      "▁அமைந்தது.": 6597,
      "▁தொழிற்சால": 6598,
      "ரிப்பு": 6599,
      "ம்க": 6600,
      "▁1971": 6601,
      "▁இடைவெள": 6602,
      "தெ": 6603,
      "▁இயலா": 6604,
      "▁தொடக்கத்தில்": 6605,
      "▁கப்பல்": 6606,
      "▁எரிம": 6607,
      "▁1986": 6608,
      "▁பிரிவில்": 6609,
      "po": 6610,
      "ம்பாளையம்": 6611,
      "▁கன்னட": 6612,
      "▁வட்டத்தில்": 6613,
      "▁உணர்வ": 6614,
      "▁இறுதியாக": 6615,
      "▁தயாரிப்பு": 6616,
      "▁இச்சேர்மம்": 6617,
      "தையும்": 6618,
      "ேஷ்": 6619,
      "▁எழுதினார்.": 6620,
      "ug": 6621,
      "கிர": 6622,
      "ஜீ": 6623,
      "▁வால": 6624,
      "▁எழுதியுள்ளார்.": 6625,
      "▁பயிற்சிய": 6626,
      "▁உடலில்": 6627,
      "▁தாங்க": 6628,
      "▁கதிர்": 6629,
      "த்துக்கும்": 6630,
      "ார்\n": 6631,
      "▁இடைப்பட்ட": 6632,
      "▁அளவீ": 6633,
      "▁செய்தது.": 6634,
      "ுமின": 6635,
      "க்சு": 6636,
      "▁விளங்குகிறது.": 6637,
      "▁ஜெர்மன": 6638,
      "ொடர்": 6639,
      "ண்டர்": 6640,
      "ாவிலும்": 6641,
      "▁தொல்கா": 6642,
      "▁குர": 6643,
      "▁கட்டமை": 6644,
      "att": 6645,
      "ளித்த": 6646,
      "▁சங்கில": 6647,
      "▁நிறுவப்பட்டது.": 6648,
      "நாதன்": 6649,
      "▁நன்ற": 6650,
      "▁எச்": 6651,
      "ாவா": 6652,
      "▁பிரக": 6653,
      "முட": 6654,
      "▁தரை": 6655,
      "ுகு": 6656,
      "▁காலை": 6657,
      "▁வடிவமைப்பு": 6658,
      "▁ஒதுக்க": 6659,
      "ுவதை": 6660,
      "ிருந்தன.": 6661,
      "▁(\"N": 6662,
      "▁4,": 6663,
      "ாக்ஸ்": 6664,
      "ீரல்": 6665,
      "▁ஆக்சிசன": 6666,
      "▁%": 6667,
      "▁(\"B": 6668,
      "▁குழாய": 6669,
      "▁வண்ணம்": 6670,
      "▁கி.மு.": 6671,
      "ிலா": 6672,
      "ினார்,": 6673,
      "▁இனங்கள்": 6674,
      "▁தங்களது": 6675,
      "▁சுந்த": 6676,
      "▁நடிக்க": 6677,
      "▁சமயத்தில்": 6678,
      "▁இசையமைத்த": 6679,
      "▁வெண்": 6680,
      "▁நூல": 6681,
      "▁குழும": 6682,
      "▁உயரமான": 6683,
      "▁விளையாடிய": 6684,
      "▁குமார": 6685,
      "▁ஹே": 6686,
      "▁மகளிர்": 6687,
      "▁வரதராஜ": 6688,
      "▁மாநிலம்": 6689,
      "▁அவ்வாறு": 6690,
      "▁உள்ளே": 6691,
      "▁பிளா": 6692,
      "▁சேர்மமாகும்.": 6693,
      "▁தாயார்": 6694,
      "▁பச்சை": 6695,
      "a\")": 6696,
      "▁பனி": 6697,
      "ிக்கா": 6698,
      "▁பிரிட்ட": 6699,
      "▁உயிரி": 6700,
      "▁பிரதேசம்": 6701,
      "நு": 6702,
      "வைக்க": 6703,
      "▁இதுவும்": 6704,
      "்களைக்": 6705,
      "ியாகக்": 6706,
      "ம்மது": 6707,
      "சி,": 6708,
      "sh": 6709,
      "▁ராக": 6710,
      "ிதா": 6711,
      "ari": 6712,
      "▁சிக்கலான": 6713,
      "▁சிங்கப்பூர்": 6714,
      "▁பில்லியன்": 6715,
      "▁விவில": 6716,
      "▁கொன்ற": 6717,
      "▁இலங்கைத்": 6718,
      "வர்களும்": 6719,
      "▁ஆணைய": 6720,
      "ினான்.": 6721,
      "ய்,": 6722,
      "▁கோடி": 6723,
      "▁அஞ்சல்": 6724,
      "படிய": 6725,
      "▁45": 6726,
      "▁பழக்க": 6727,
      "பவர்": 6728,
      "▁அவனது": 6729,
      "▁மாநக": 6730,
      "ீன": 6731,
      "மாய": 6732,
      "▁தமிழகத்தில்": 6733,
      "▁பிராந்திய": 6734,
      "▁இவர்கள": 6735,
      "▁சார்பு": 6736,
      "ாண்ட்": 6737,
      "▁அகல": 6738,
      "▁மகிழ": 6739,
      "▁தகுதி": 6740,
      "▁நடுவ": 6741,
      ".எஸ்.": 6742,
      "▁படையெடு": 6743,
      "▁(\"V": 6744,
      "▁எதிர்த்து": 6745,
      "▁தோற்றம்": 6746,
      "▁ஊக்குவ": 6747,
      "▁பத்ம": 6748,
      "க்குள்": 6749,
      "eg": 6750,
      "▁இரக": 6751,
      "▁கூறும்": 6752,
      "▁முடிவில்": 6753,
      "▁புவியியல்": 6754,
      "டுவ": 6755,
      "ராலும்": 6756,
      "▁காட்சிய": 6757,
      "▁கொண்டுவ": 6758,
      "▁கிரா": 6759,
      "ழக்க": 6760,
      "ாகத்": 6761,
      "▁காத்த": 6762,
      "▁வடக்கில்": 6763,
      "▁கொண்டு,": 6764,
      "▁சுழற்சி": 6765,
      "▁லிங்க": 6766,
      "ட்பு": 6767,
      "▁கிடை": 6768,
      "▁நுண்ணு": 6769,
      "லஸ்": 6770,
      "ே.": 6771,
      "ப்ள": 6772,
      "ாரை": 6773,
      "▁கோபுரம்": 6774,
      "▁போதுமான": 6775,
      "▁செயல்பட": 6776,
      "வாள": 6777,
      "ுக்கிட": 6778,
      "ாவது,": 6779,
      "ல்கள்,": 6780,
      "▁வெளிப்புற": 6781,
      "▁புதிதாக": 6782,
      "▁விஷ்ண": 6783,
      "ம்பூர்": 6784,
      "▁தூய": 6785,
      "▁உயிரியல்": 6786,
      "▁ஒன்றியத்தில்": 6787,
      "ok": 6788,
      "ுவதால்": 6789,
      "சிரியர்": 6790,
      "▁முடியும்.\n": 6791,
      "▁கல்லூர": 6792,
      "▁அழுத்தம்": 6793,
      "▁விற்க": 6794,
      "ப்பட்டது,": 6795,
      "▁நிறைய": 6796,
      "▁பெற்றது.\n": 6797,
      "▁பல்கலைக்": 6798,
      "▁சார்பில்": 6799,
      "▁ஆபிர": 6800,
      "▁அலகு": 6801,
      "▁மான்": 6802,
      "ர்களையும்": 6803,
      "▁அழகிய": 6804,
      "இது": 6805,
      "ிக்கொள்ள": 6806,
      "ருக்குப்": 6807,
      "▁பாரசீ": 6808,
      "▁வயி": 6809,
      "▁அதிகாரப்பூர்வ": 6810,
      "▁சன்னத": 6811,
      "▁விரைவாக": 6812,
      "▁கூறப்படுகிறது.": 6813,
      "▁இக்கிராம": 6814,
      "▁வீரர்கள்": 6815,
      "▁ஏக": 6816,
      "யே": 6817,
      "ப்பட்டிருக்க": 6818,
      "▁தலைவ": 6819,
      "த்தொகு": 6820,
      "▁எலும்ப": 6821,
      "▁பாப": 6822,
      "▁டீ": 6823,
      "▁அயோ": 6824,
      "▁பேசும்": 6825,
      "ணர்வு": 6826,
      "ல்\">\n": 6827,
      "▁1978": 6828,
      "▁இதற்க": 6829,
      "விள": 6830,
      "▁title=\"திரு": 6831,
      "னைத்": 6832,
      "▁இளைஞ": 6833,
      "▁ஆதரவு": 6834,
      "▁நம்": 6835,
      "▁கொல்க": 6836,
      "ழ்வு": 6837,
      "ங்களைச்": 6838,
      "த்தோடு": 6839,
      "ளைத்": 6840,
      "▁மேள": 6841,
      "ரியன்": 6842,
      "▁இந்தோனே": 6843,
      "புரா": 6844,
      "ணி,": 6845,
      "▁வளர்ச்சிய": 6846,
      "▁பற்றியும்": 6847,
      "▁திருச்சிராப்பள்ளி": 6848,
      "▁முன்னதாக": 6849,
      "ப்படி,": 6850,
      "▁வெளியிட்டார்.": 6851,
      "ational": 6852,
      "புற": 6853,
      "ட்டமன்ற": 6854,
      "ாவி": 6855,
      "▁கட்டமைப்பு": 6856,
      "▁பரந்த": 6857,
      "▁தூய்": 6858,
      "▁ஏற்கனவே": 6859,
      "ுள்ளன.\n": 6860,
      "▁தெரிவு": 6861,
      "கையில்": 6862,
      "தற்கான": 6863,
      "▁லை": 6864,
      "▁பரப்பு": 6865,
      "▁சண்டை": 6866,
      "கள்": 6867,
      "▁கிபி": 6868,
      "▁வீத": 6869,
      "▁அலுவல": 6870,
      "▁சாலையில்": 6871,
      "▁அண்ணா": 6872,
      "த்தாக்க": 6873,
      "▁நற்ச": 6874,
      "▁மீனா": 6875,
      "தியும்,": 6876,
      "▁வீட்டில்": 6877,
      "ன்னா": 6878,
      "▁குறி": 6879,
      "போல்": 6880,
      "▁மெக்ச": 6881,
      "ன்.ஏ": 6882,
      "மென": 6883,
      "▁அரசன்": 6884,
      "▁பெல்": 6885,
      "▁1940": 6886,
      "▁வந்தனர்.": 6887,
      "▁அமைப்பில்": 6888,
      "ிலிருந்தும்": 6889,
      "▁திருப்பூர்": 6890,
      "▁வரையில்": 6891,
      "▁மாசி": 6892,
      "▁ஏற்றுக்": 6893,
      "▁அதிர்வ": 6894,
      "வேண்டும்.": 6895,
      "oh": 6896,
      "▁விளக்கம்": 6897,
      "▁பாலின": 6898,
      "வார": 6899,
      "▁முறைய": 6900,
      "றிஞ": 6901,
      "▁1985": 6902,
      "▁வழிகாட்ட": 6903,
      "ிறகு": 6904,
      "ாளியம்மன்": 6905,
      "▁கேள்வ": 6906,
      "▁கட்டமைப்ப": 6907,
      "▁அரபு": 6908,
      "▁பொறுத்த": 6909,
      "▁இழந்த": 6910,
      "▁வலியுறுத்த": 6911,
      "▁உபசன்னதிகளும்": 6912,
      "▁ஜெர்மானிய": 6913,
      "ரையும்": 6914,
      "ருவி": 6915,
      "கோண": 6916,
      "மிழ்நாடு": 6917,
      "ார்ந்த": 6918,
      "ச்சல்": 6919,
      "▁புரட்ச": 6920,
      "▁சில்": 6921,
      "▁உறை": 6922,
      "▁விளையாட": 6923,
      "▁1983": 6924,
      "▁சுட": 6925,
      "ாலோ": 6926,
      "▁பாடசால": 6927,
      "▁வகுப்ப": 6928,
      "ளிப்ப": 6929,
      "▁1930": 6930,
      "▁தேவி": 6931,
      "▁தொகுதிகளில்": 6932,
      "▁என்றாலும்": 6933,
      "ine": 6934,
      "ப்பெருக்க": 6935,
      "ராஜா": 6936,
      "br>": 6937,
      "▁சுகாதார": 6938,
      "ட்டி,": 6939,
      "▁உப்பு": 6940,
      "ண்முக": 6941,
      "▁இப்பகுதியில்": 6942,
      "atti": 6943,
      "▁முயற்சி": 6944,
      "▁லீக்": 6945,
      "ன்பட்டி": 6946,
      "▁மையமாக": 6947,
      "▁ராஜா": 6948,
      "▁அசிட்ட": 6949,
      "▁சிப்ப": 6950,
      "▁பகுதியின்": 6951,
      "▁இவ்வூர்": 6952,
      "மையும்": 6953,
      "▁(2": 6954,
      "▁குளி": 6955,
      "வை.\n": 6956,
      "▁300": 6957,
      "ாகிய": 6958,
      "ாவதாக": 6959,
      "▁மென்": 6960,
      "ேற்ப": 6961,
      "▁அறு": 6962,
      "லை.\n": 6963,
      "▁தென்ப": 6964,
      "▁என்றே": 6965,
      "▁தெரு": 6966,
      "▁வாடிக்க": 6967,
      "▁செல்வா": 6968,
      "▁கரைச": 6969,
      "ரிஸ்": 6970,
      "ெடுத்து": 6971,
      "▁சேத": 6972,
      "சுப": 6973,
      "▁வழிபாடு": 6974,
      "▁ஆக்சைடு": 6975,
      "▁150": 6976,
      "▁(K": 6977,
      "ங்களுக்கான": 6978,
      "▁வழித்த": 6979,
      "▁காணலாம்.": 6980,
      "▁id=\"273": 6981,
      "▁url=\"https://ta.wikipedia.org/wiki?curid=273": 6982,
      "னையும்": 6983,
      "▁சென்": 6984,
      "▁மு.": 6985,
      "▁கோரிக்க": 6986,
      "ஷ்மீ": 6987,
      "புரம்,": 6988,
      "▁இணைக்கும்": 6989,
      "▁சிவபெருமான": 6990,
      "வைகள்": 6991,
      "துடன்,": 6992,
      "ார்;": 6993,
      "ant": 6994,
      "ராம்": 6995,
      "▁மாற்றி": 6996,
      "▁கவிஞ": 6997,
      "▁இப்பிர": 6998,
      "▁கடலூர்": 6999,
      "▁நிறுவனத்தில்": 7000,
      "▁பிரதேசத்தின்": 7001,
      "▁to": 7002,
      "ுதான்": 7003,
      "வர்கள்.": 7004,
      "▁கிழக்கில்": 7005,
      "▁இந்நூல்": 7006,
      "▁(சட்டமன்ற": 7007,
      "▁179": 7008,
      "▁ஐ.": 7009,
      "▁1967": 7010,
      "▁கால்பந்து": 7011,
      "ew": 7012,
      "▁சமண": 7013,
      "▁சூட்ட": 7014,
      "வியலாள": 7015,
      "னன்": 7016,
      "பல": 7017,
      "▁பச": 7018,
      "▁இந்தியக்": 7019,
      "▁கணிப்ப": 7020,
      "▁வளரும்": 7021,
      "▁நிகழ்ச்சி": 7022,
      "ங்கர்": 7023,
      "▁தொட்ட": 7024,
      "▁id=\"23": 7025,
      "▁url=\"https://ta.wikipedia.org/wiki?curid=23": 7026,
      "▁நோக்கிய": 7027,
      "ish": 7028,
      "▁தொகுதி\n": 7029,
      "சப்": 7030,
      "சனை": 7031,
      "▁ஆரோ": 7032,
      "ிக்கல்": 7033,
      "ிவிட": 7034,
      "▁நிகழ்க": 7035,
      "▁எப்போதும்": 7036,
      "மெரிக்க": 7037,
      "ாவார்.": 7038,
      "▁குழுவின்": 7039,
      "▁கௌரவ": 7040,
      "▁(F": 7041,
      "▁பிரகா": 7042,
      "ுதி": 7043,
      "ாளர்களின்": 7044,
      "▁அளவை": 7045,
      "▁மாநிலமான": 7046,
      "ary": 7047,
      "▁கொண்டிருக்கும்.": 7048,
      "▁திருவாரூர்": 7049,
      "ுமிட": 7050,
      "▁இருக்கலாம்": 7051,
      "▁தாள": 7052,
      "▁நிபு": 7053,
      "▁சூழல்": 7054,
      "▁ஒப்பந்தம்": 7055,
      "▁குதிரை": 7056,
      "த்தன": 7057,
      ".2": 7058,
      "என்": 7059,
      "▁அந்": 7060,
      "ுகின்றனர்.\n": 7061,
      "ரை,": 7062,
      "▁1972": 7063,
      "▁நூலை": 7064,
      "▁பெயர்கள்": 7065,
      "பிள": 7066,
      "▁தீவுகள்": 7067,
      "▁புள்ளி": 7068,
      "▁மும்பை": 7069,
      "இன்": 7070,
      "▁சர்ச்ச": 7071,
      "ர்களுக்கும்": 7072,
      "▁id=\"276": 7073,
      "▁url=\"https://ta.wikipedia.org/wiki?curid=276": 7074,
      "▁மிகச்ச": 7075,
      "ுகளுக்கும்": 7076,
      "▁துறைகளில்": 7077,
      "▁இடம்பெற": 7078,
      "▁தொல்லியல்": 7079,
      "▁இந்திர": 7080,
      "▁புல்": 7081,
      "ுகளிலும்": 7082,
      "▁தொகுதி\">\n": 7083,
      "ையன்": 7084,
      "▁நற்செய்த": 7085,
      "▁k": 7086,
      "▁பொருள்க": 7087,
      "▁இயேசுவின்": 7088,
      "மின்றி": 7089,
      "ோம்": 7090,
      "ht": 7091,
      "மின": 7092,
      "▁காச": 7093,
      "லி,": 7094,
      "▁தலைய": 7095,
      "▁உண்டு.\n": 7096,
      "▁\"ஜ": 7097,
      "▁போட்டிகள்": 7098,
      "▁பேராசிரியர்": 7099,
      "▁சதவீதம்": 7100,
      "▁மக்களை": 7101,
      "▁பதவிய": 7102,
      "▁நுரைய": 7103,
      "▁தெரிந்த": 7104,
      "க்காக": 7105,
      "▁காப்பு": 7106,
      "த்தொடர்": 7107,
      "▁எழுத்தறிவு": 7108,
      "▁ஆகியோரின்": 7109,
      "ep": 7110,
      "▁பயன்": 7111,
      "லியன்": 7112,
      "▁கைப்பற்றிய": 7113,
      "ொருட்க": 7114,
      "மாற்றம்": 7115,
      "▁id=\"9": 7116,
      "▁url=\"https://ta.wikipedia.org/wiki?curid=9": 7117,
      "1,": 7118,
      "▁முதலமைச்ச": 7119,
      "வீர": 7120,
      "▁போர்த்துக்க": 7121,
      "மாலை": 7122,
      "▁குளோரைடு": 7123,
      "ாபி": 7124,
      "ந்தாட்ட": 7125,
      "▁அலுமின": 7126,
      "▁துவங்கிய": 7127,
      "▁வந்துள்ள": 7128,
      "▁அர்த்த": 7129,
      "மையால்": 7130,
      "▁தகவல்களை": 7131,
      "▁தண்ணீ": 7132,
      "▁முறையை": 7133,
      "▁இறைவன்": 7134,
      "கன்": 7135,
      "ிக்கப்படும்": 7136,
      "▁கோவ": 7137,
      "ங்களுக்காக": 7138,
      "ழுதும்": 7139,
      "▁1982": 7140,
      "▁1969": 7141,
      "▁ஒப்பி": 7142,
      "▁வகுப்பு": 7143,
      "ஸ்ச": 7144,
      "▁ஒருவர்.": 7145,
      "▁(\"R": 7146,
      "▁செய்தனர்.": 7147,
      "▁விடுவ": 7148,
      "▁நிதிய": 7149,
      "ினைக்": 7150,
      "▁வருகை": 7151,
      "▁குற்றம்": 7152,
      "▁எளிதாக": 7153,
      "பான்": 7154,
      "ட்ரா": 7155,
      "ப்பெற": 7156,
      "▁என்பதைக்": 7157,
      "▁பிரதிநிதி": 7158,
      "▁என்றழைக்கப்படும்": 7159,
      "▁இளவரச": 7160,
      "▁நியூயார்க்": 7161,
      "ளத்தில்": 7162,
      "▁தரம்": 7163,
      "ப்படலாம்.": 7164,
      "ுக்குச்": 7165,
      "▁போதும்": 7166,
      "மாகவே": 7167,
      "து\n": 7168,
      "▁குறிப்புகள்": 7169,
      "▁ஆனந்த": 7170,
      "▁இனி": 7171,
      "▁வில்ல": 7172,
      "▁என்பவற்ற": 7173,
      "வதற்காக": 7174,
      "▁St": 7175,
      "▁குருதி": 7176,
      "ிணை": 7177,
      "▁வற": 7178,
      "▁சம்ம": 7179,
      "▁நரசி": 7180,
      "▁நிறத்தில்": 7181,
      "▁வெறு": 7182,
      "ப்பதற்கான": 7183,
      "▁பணியில்": 7184,
      "▁நகராட்சி": 7185,
      "▁இம்மாவட்டத்தின்": 7186,
      "▁(சட்டமன்றத்": 7187,
      "ாற": 7188,
      "▁உணர": 7189,
      "ிக்ஸ்": 7190,
      "▁வீதம்": 7191,
      "▁அமைப்பை": 7192,
      "▁மணிக்கு": 7193,
      "▁சுற்றுப்ப": 7194,
      "▁இத்தாலிய": 7195,
      "▁அலெக்ச": 7196,
      "▁or": 7197,
      "லிங்": 7198,
      "▁1962": 7199,
      "▁கரூர்": 7200,
      "லைய": 7201,
      "ம்பெய": 7202,
      "▁பொட்டா": 7203,
      "நான": 7204,
      "▁அன்னை": 7205,
      "▁1948": 7206,
      "▁தொடக்கம்": 7207,
      "▁கொரிய": 7208,
      "▁துள": 7209,
      "▁இலவச": 7210,
      "▁வசத": 7211,
      "▁நடித்துள்ளார்.": 7212,
      "▁ஏராளமான": 7213,
      "தைக்": 7214,
      "▁1000": 7215,
      "▁id=\"5": 7216,
      "▁url=\"https://ta.wikipedia.org/wiki?curid=5": 7217,
      "▁பண்பாட்டு": 7218,
      "▁கோடை": 7219,
      "வதற்கான": 7220,
      "▁id=\"28": 7221,
      "▁url=\"https://ta.wikipedia.org/wiki?curid=28": 7222,
      "▁பீட்டர்": 7223,
      "</": 7224,
      "▁கள்ள": 7225,
      "...": 7226,
      "▁கல்க": 7227,
      "▁இருந்துள்ள": 7228,
      "▁ஹா": 7229,
      "▁சேர்ந்தார்.": 7230,
      "▁புதுப்ப": 7231,
      "▁சொற்கள்": 7232,
      "▁சிறுகத": 7233,
      "்து": 7234,
      "▁வட்டம்": 7235,
      "▁சிறுநீ": 7236,
      "▁ஆலயம்": 7237,
      "▁தெற்கில்": 7238,
      "ேறிய": 7239,
      "▁கம்யூ": 7240,
      "ரிசு": 7241,
      "ிவா": 7242,
      "▁மாய": 7243,
      "▁என்பதாகும்.": 7244,
      "▁வீடு": 7245,
      "▁திபெ": 7246,
      "▁தீர்க்க": 7247,
      "▁பெருமை": 7248,
      "▁ஆனார்.": 7249,
      "▁ஃபோ": 7250,
      "கல்": 7251,
      "▁அவள": 7252,
      "▁\"\"": 7253,
      "▁கட்டப்பட்டது.": 7254,
      "▁பயன்படுத்தப்படுகின்றன.": 7255,
      "▁இராகம்": 7256,
      "மானது.": 7257,
      "▁இருக்கிறது.\n": 7258,
      "த்திட்ட": 7259,
      "▁காஷ்மீ": 7260,
      "ஸ்ப": 7261,
      "▁வெடி": 7262,
      "▁காலமான": 7263,
      "▁சீட": 7264,
      "▁விரிவாக்க": 7265,
      "▁அணுகும": 7266,
      "விகித": 7267,
      "▁ஆரம்பித்த": 7268,
      "▁என்பதற்கு": 7269,
      "▁மரபணு": 7270,
      "und": 7271,
      "▁விநாயகர்,": 7272,
      "ff": 7273,
      "▁சும": 7274,
      "▁கருநாடக": 7275,
      "▁திண்ம": 7276,
      "▁உட்படுத்த": 7277,
      "சனம்": 7278,
      "▁செய்வது": 7279,
      "க்கை": 7280,
      "வர்கள்,": 7281,
      "▁மண்டலம்": 7282,
      "▁முற்றிலும்": 7283,
      "▁உளவியல்": 7284,
      "▁அணுக்கரு": 7285,
      "ல்லை": 7286,
      "▁நெருங்கிய": 7287,
      "▁1979": 7288,
      "▁சொற்ப": 7289,
      "▁மாறுப": 7290,
      "கமாக": 7291,
      "ெழுத்த": 7292,
      "ேன்.": 7293,
      "ுக்கிடையே": 7294,
      "▁பிராம": 7295,
      "▁எனத்": 7296,
      "விந்த": 7297,
      "▁இடத்தை": 7298,
      "▁நாகரிக": 7299,
      "ம்பரம்": 7300,
      "▁வருகின்றனர்.": 7301,
      "▁பறவைகள்": 7302,
      "▁வளிமண்டல": 7303,
      "▁குஜ": 7304,
      "ங்களையும்,": 7305,
      "▁எதிர்த்த": 7306,
      "▁பேச்சு": 7307,
      "ிமுறை": 7308,
      "▁மாதிரி": 7309,
      "▁அனைத்துலக": 7310,
      "▁வேகமாக": 7311,
      "ாணம்": 7312,
      "▁குறைந்து": 7313,
      "▁ஓட்டங்கள்": 7314,
      "▁நெடுஞ்சால": 7315,
      "▁உடனடியாக": 7316,
      "ுவர்": 7317,
      "▁ஹார்": 7318,
      "னிடம்": 7319,
      "ினார்கள்.": 7320,
      "▁மேலாக": 7321,
      "ஷ்க": 7322,
      "▁பாம்ப": 7323,
      "▁மேற்கில்": 7324,
      "▁மனைவிய": 7325,
      "ich": 7326,
      "னுக்கும்": 7327,
      "ank": 7328,
      "போன்ற": 7329,
      "▁5,": 7330,
      "▁பாரதிய": 7331,
      "▁1952": 7332,
      "ேட்ட": 7333,
      "ரியோ": 7334,
      "▁கல்யா": 7335,
      "▁எனவே,": 7336,
      "▁ஜனதா": 7337,
      "▁கொடுத்து": 7338,
      "▁உடன்படிக்க": 7339,
      "ப்படியாக": 7340,
      "▁உறுதிப்படுத்த": 7341,
      "▁முதன்முதலில்": 7342,
      "▁காலகட்டத்தில்": 7343,
      "ென்று": 7344,
      "▁முயன்ற": 7345,
      "▁விசார": 7346,
      "500": 7347,
      "ber": 7348,
      "ci": 7349,
      "▁பெரம்ப": 7350,
      "▁காற்ப": 7351,
      "போத": 7352,
      "ராக்சைடு": 7353,
      "ியான்": 7354,
      "டுகிறது.\n": 7355,
      "▁ஊடு": 7356,
      "▁1975": 7357,
      "▁உருவாக்கி": 7358,
      "பேசி": 7359,
      "▁வியட்": 7360,
      "மால": 7361,
      "ுண்ட": 7362,
      "▁இப்படி": 7363,
      "▁சல": 7364,
      "▁பல்கலைக்கழகத்தின்": 7365,
      "▁தனித்துவ": 7366,
      "நியோக": 7367,
      "▁மல்ல": 7368,
      "tiv": 7369,
      "▁மாற்றங்கள்": 7370,
      "சிக": 7371,
      "மத": 7372,
      "▁காப்பாற்ற": 7373,
      "▁கோப": 7374,
      "▁பொருந்த": 7375,
      "▁வசதி": 7376,
      "1.": 7377,
      "லுடன்": 7378,
      "▁ஒத்து": 7379,
      "▁பெட்ட": 7380,
      "▁(\"G": 7381,
      "▁id=\"274": 7382,
      "▁url=\"https://ta.wikipedia.org/wiki?curid=274": 7383,
      "▁பார்வையாள": 7384,
      "ாது.": 7385,
      "▁என்பவை": 7386,
      "▁சுப்பிரமணிய": 7387,
      "▁சுற்றுச்சூழல்": 7388,
      "▁ஆகவும்,": 7389,
      "▁1976": 7390,
      "▁கடலில்": 7391,
      "ரிக்கு": 7392,
      "▁வடிவமைக்க": 7393,
      "▁பாதுகாப்ப": 7394,
      "▁காமிக": 7395,
      "72\"": 7396,
      "ர்களும்,": 7397,
      "▁வீட்டு": 7398,
      "▁பெருங்கட": 7399,
      "ுகின்றது.\n": 7400,
      "▁செவ்": 7401,
      "▁\"வ": 7402,
      "▁id=\"275": 7403,
      "▁url=\"https://ta.wikipedia.org/wiki?curid=275": 7404,
      "▁வெளியானது.": 7405,
      "விழா": 7406,
      "▁மாறுபட்ட": 7407,
      "நூ": 7408,
      "▁மோத": 7409,
      "▁குடியரசு": 7410,
      "▁பிக": 7411,
      "es)": 7412,
      "ொருட்கள்": 7413,
      "தூர்": 7414,
      "▁நிரூப": 7415,
      "ிச்": 7416,
      "▁இப்பகுத": 7417,
      "ப்பொருள": 7418,
      "▁உழை": 7419,
      "▁(வ": 7420,
      "▁1974": 7421,
      "▁மாநகர": 7422,
      "▁பாண": 7423,
      "▁ஜா": 7424,
      "▁அடைக": 7425,
      "▁துடுப்பாட்டக்காரர்": 7426,
      "டியா": 7427,
      "ர்கள்.\n": 7428,
      "▁தேர்": 7429,
      "▁ஆக்கிர": 7430,
      "வருக்கு": 7431,
      "ெண்ண": 7432,
      "▁பெறு": 7433,
      "▁நிறுவப்பட்ட": 7434,
      "▁பணிகள்": 7435,
      "மூலம்": 7436,
      "▁தேர்ந்தெடுக்கப்பட்டார்.": 7437,
      "▁நடந்து": 7438,
      "▁ஆனாலும்": 7439,
      "▁தேசியப்": 7440,
      "▁தமிழகத்தின்": 7441,
      "▁டாக்டர்": 7442,
      "▁விக்": 7443,
      "▁நிறுவிய": 7444,
      "▁காணப்படுகிறது.\n": 7445,
      "▁மட்டுமல்ல": 7446,
      "▁நின்று": 7447,
      "டீ": 7448,
      "▁கொண்டுவர": 7449,
      "▁வடக்கே": 7450,
      "▁கண்டுபிடிக்க": 7451,
      ",\n": 7452,
      "லையில்": 7453,
      "க்கு,": 7454,
      "வேண்டிய": 7455,
      "▁தனியாக": 7456,
      "செல்": 7457,
      "ினுள்": 7458,
      "ித்துக்": 7459,
      "▁ஆண்டுத": 7460,
      "▁தீய": 7461,
      "▁உறி": 7462,
      "ிக்கிழ": 7463,
      "amp": 7464,
      "▁புகழ": 7465,
      "▁அளவிற்கு": 7466,
      "▁குதிர": 7467,
      "▁புகைப்பட": 7468,
      "ூன்": 7469,
      "ரித": 7470,
      "வெப்ப": 7471,
      "சேகர": 7472,
      "ேஸ்வரர்": 7473,
      "▁ஆஞ்ச": 7474,
      "▁வென்று": 7475,
      "▁பார்வை": 7476,
      "▁சன்னதியும்,": 7477,
      "ிருப்பது": 7478,
      "▁பிரதிநித": 7479,
      "நோக்க": 7480,
      "▁நிரந்தர": 7481,
      "▁வித்தியாச": 7482,
      "▁எலும்பு": 7483,
      "▁நோபல்": 7484,
      "▁59": 7485,
      "▁1956": 7486,
      "▁வரவேற்ப": 7487,
      "வுத்": 7488,
      "▁பில்": 7489,
      "ற்று.": 7490,
      "ans": 7491,
      "▁ஒவ்வொன்ற": 7492,
      "ீட்டின்": 7493,
      "ுறிப்ப": 7494,
      "▁குட்ட": 7495,
      "ங்களிலிருந்து": 7496,
      "▁மீத": 7497,
      "▁அடி)": 7498,
      "▁உணர்ந்த": 7499,
      "▁மட்டக்கள": 7500,
      "▁அட்டவண": 7501,
      "▁நாட்காட்ட": 7502,
      "ிம்": 7503,
      "▁|": 7504,
      "ாகவும்,": 7505,
      "▁திரைக்க": 7506,
      "▁1964": 7507,
      "▁இறைவ": 7508,
      "▁செய்கிறது.": 7509,
      "▁முஸ்லிம்": 7510,
      "மட்ட": 7511,
      "ோம்.": 7512,
      "▁ஆண்டுகளாக": 7513,
      "ிகளுக்கும்": 7514,
      "▁மாறாக": 7515,
      "▁தனிந": 7516,
      "▁இடையிலான": 7517,
      "▁வாயு": 7518,
      "ூக்க": 7519,
      "ம்பாடி": 7520,
      "▁தேற்ற": 7521,
      "▁வடக்க": 7522,
      "▁சகோத": 7523,
      "▁எடுத்துக்காட்டாக": 7524,
      "▁மகிழ்ச்ச": 7525,
      "42\"": 7526,
      "▁அடுக்கு": 7527,
      "▁விநியோக": 7528,
      "ைகளுக்கும்": 7529,
      "▁தகவல்கள்": 7530,
      "▁முடிவுகள்": 7531,
      "▁அரசாங்கம்": 7532,
      "த்மா": 7533,
      "▁கூறுகிறது.": 7534,
      "ங்,": 7535,
      "▁கிடைத்தது.": 7536,
      "uth": 7537,
      "ழில்": 7538,
      "▁தம": 7539,
      "▁உக": 7540,
      "▁முப்ப": 7541,
      "▁வெளிப்பட": 7542,
      "▁ரிச்ச": 7543,
      "ேட்டை": 7544,
      "▁அறிக்கை": 7545,
      "▁ரக": 7546,
      "▁நிலைக்கு": 7547,
      "முறையாக": 7548,
      "▁வழக்கமான": 7549,
      "▁காமிகாகம": 7550,
      "ain": 7551,
      "ப்படுகின்றனர்.": 7552,
      "▁விதமாக": 7553,
      "▁எடுத்துக்காட்டாக,": 7554,
      "ேஸ்": 7555,
      "▁மாட்ட": 7556,
      "▁வார்": 7557,
      "ிறார்கள்.\n": 7558,
      "ஞ்ச்": 7559,
      "▁தீர்வ": 7560,
      "▁நிகழும்": 7561,
      "hy": 7562,
      "நடை": 7563,
      "ிக்கப்படுகிறது.": 7564,
      "▁தொகுதி,": 7565,
      "▁பொருளாத": 7566,
      "▁கொல்லப்பட்ட": 7567,
      "வாச": 7568,
      "▁பெயரால்": 7569,
      "க்தி": 7570,
      "▁திகழ்க": 7571,
      "▁அபி": 7572,
      "▁வழங்கப்பட்ட": 7573,
      "ஆர்": 7574,
      "▁(s": 7575,
      "▁id=\"18": 7576,
      "▁url=\"https://ta.wikipedia.org/wiki?curid=18": 7577,
      "▁தலைநகர்": 7578,
      "▁பயன்படுத்தப்பட்ட": 7579,
      "மொத்த": 7580,
      "▁கொண்டிருந்தது.": 7581,
      "▁நச்ச": 7582,
      "ச்சுவை": 7583,
      "▁என்பதே": 7584,
      "▁கதாநாயக": 7585,
      "ார்டு": 7586,
      "ம்பிய": 7587,
      "▁நூல்களில்": 7588,
      "▁இருந்தார்.\n": 7589,
      "ப்பாத்திர": 7590,
      "▁மக்களும்": 7591,
      "▁ஆட்சியின்": 7592,
      "46\"": 7593,
      "ளையும்": 7594,
      "ராஷ்ட": 7595,
      "ுடா": 7596,
      "▁மாவட்டம்\n": 7597,
      "▁இந்நிறுவ": 7598,
      "ையோர": 7599,
      "▁;": 7600,
      "▁’": 7601,
      "▁வீடியோ": 7602,
      "▁வகித்த": 7603,
      "▁தொலைவில": 7604,
      "▁1957": 7605,
      "▁செயற்கை": 7606,
      "no": 7607,
      "▁தப்ப": 7608,
      "ாலேயே": 7609,
      "▁அறக்கட்ட": 7610,
      "▁சமூ": 7611,
      "▁அணியில்": 7612,
      "▁கணக்கில்": 7613,
      "▁அரண்மனை": 7614,
      "ிக்காட்ட": 7615,
      "▁அடர்த்த": 7616,
      "▁இவ்வி": 7617,
      "45\"": 7618,
      "▁நிற்க": 7619,
      "▁சிந்து": 7620,
      "▁பரப்பளவில்": 7621,
      "70\"": 7622,
      "ணவ": 7623,
      "▁சன்": 7624,
      "ின்,": 7625,
      "ம்போ": 7626,
      "▁நூலின்": 7627,
      "வியலில்": 7628,
      "▁கூறி": 7629,
      "▁சாஸ்த": 7630,
      "▁மரா": 7631,
      "ப்படியான": 7632,
      "▁செயலாள": 7633,
      "ராகவும்,": 7634,
      "▁இயக்குனர்": 7635,
      "வுன்": 7636,
      "ர்களான": 7637,
      "▁எதிர்க்க": 7638,
      "ாணும்": 7639,
      "ன்களின்": 7640,
      "▁அருகிலுள்ள": 7641,
      "▁சடங்க": 7642,
      "▁l": 7643,
      "▁வருகின்ற": 7644,
      "▁ஐரோப்பாவில்": 7645,
      "▁எய": 7646,
      "▁உயி": 7647,
      "▁உறுப்பு": 7648,
      "▁நியூசில": 7649,
      "▁கழகத்தின்": 7650,
      "3,": 7651,
      "மாகவும்,": 7652,
      "▁குமார்": 7653,
      "▁அறுவ": 7654,
      "▁இரட்ட": 7655,
      "▁சிலை": 7656,
      "▁படங்களில்": 7657,
      "▁தோன்றும்": 7658,
      "▁போட்டியிட்ட": 7659,
      "ினாலும்": 7660,
      "ாதம்": 7661,
      "▁குழுக்கள": 7662,
      "▁di": 7663,
      "▁செம்ம": 7664,
      "▁காக்க": 7665,
      "▁கொண்டது.\n": 7666,
      "ேசுவரர்": 7667,
      "▁id=\"25": 7668,
      "▁url=\"https://ta.wikipedia.org/wiki?curid=25": 7669,
      "▁6,": 7670,
      "▁மூலக்கூறு": 7671,
      "▁பெருமளவில்": 7672,
      "▁5.": 7673,
      "▁1965": 7674,
      "▁கருவிகள்": 7675,
      "▁விவிலிய": 7676,
      "▁id=\"272": 7677,
      "▁url=\"https://ta.wikipedia.org/wiki?curid=272": 7678,
      "▁விரைவில்": 7679,
      "our": 7680,
      "வொ": 7681,
      "்கால": 7682,
      "▁அன்": 7683,
      "ாவிலிருந்து": 7684,
      "▁தொடர": 7685,
      "▁அரசர்": 7686,
      "ைகளும்,": 7687,
      "▁முக்கியமாக": 7688,
      "▁இளங்க": 7689,
      "olog": 7690,
      "▁பகவ": 7691,
      "▁வெகு": 7692,
      "▁மாச": 7693,
      "▁உற்ச": 7694,
      "மித்த": 7695,
      "▁ஆகவே": 7696,
      "ிருக்கலாம்": 7697,
      "▁id=\"15": 7698,
      "▁url=\"https://ta.wikipedia.org/wiki?curid=15": 7699,
      "▁அக்காலத்தில்": 7700,
      "▁ஆண்டுதோறும்": 7701,
      "ரா,": 7702,
      "▁பெருந்த": 7703,
      "▁எல்லாம்": 7704,
      "▁கட்டிடக்கலை": 7705,
      "76\"": 7706,
      "ப்புல": 7707,
      "வாங்க": 7708,
      "▁வேறுபாடு": 7709,
      "▁ஆந்திரப்": 7710,
      "வினை": 7711,
      "ருமான": 7712,
      "ப்ட்": 7713,
      "▁பொருளின்": 7714,
      "▁மக்களவை": 7715,
      "▁பன்னிர": 7716,
      "ach": 7717,
      "தொ": 7718,
      "ாவன": 7719,
      "ித்திர": 7720,
      "ாயன": 7721,
      "▁36": 7722,
      "▁இயக்குன": 7723,
      "க்கணக்கான": 7724,
      "▁ஒது": 7725,
      "ுக்குள்ள": 7726,
      "▁நூறு": 7727,
      "▁அழகு": 7728,
      "▁பிறந்தவர்.": 7729,
      "▁சிந்தன": 7730,
      "▁நுகர்வ": 7731,
      "ment": 7732,
      "வல்": 7733,
      "த்ர": 7734,
      "ரித்து": 7735,
      "▁ஊழிய": 7736,
      "▁வழக்கில்": 7737,
      "▁மரபுவ": 7738,
      "74\"": 7739,
      "சய": 7740,
      "ேர": 7741,
      "▁\"ட": 7742,
      "▁தொகுதியின்": 7743,
      "▁இலிருந்து": 7744,
      "▁திண": 7745,
      "▁மேற்கத்திய": 7746,
      "▁இசைக்": 7747,
      "▁செயல்படும்": 7748,
      "▁வணங்க": 7749,
      "▁புற்றுநோய்": 7750,
      "ீத": 7751,
      "ங்கால": 7752,
      "ரிப்ப": 7753,
      "ரிக்கும்": 7754,
      "ப்படுத்திய": 7755,
      "▁(இத": 7756,
      "▁இத்": 7757,
      "▁கட்டிய": 7758,
      "▁மாணவர்": 7759,
      "▁காங்கிரசு": 7760,
      "ate": 7761,
      "75\"": 7762,
      "▁வழியே": 7763,
      "கி.": 7764,
      ".5%": 7765,
      "▁குஜரா": 7766,
      "30\"": 7767,
      "செய": 7768,
      "▁ஸ்ட்": 7769,
      "▁re": 7770,
      "சிங்க": 7771,
      "▁நடுவில்": 7772,
      "▁சூழலில்": 7773,
      "▁இருந்தாலும்,": 7774,
      "▁(\"D": 7775,
      "மீது": 7776,
      "▁வருகின்றன.\n": 7777,
      "ண்கல": 7778,
      "▁ஃபிர": 7779,
      "▁கண்டுபிடிப்ப": 7780,
      "47\"": 7781,
      "79\"": 7782,
      "பந்த": 7783,
      "ாறு": 7784,
      "▁துகள": 7785,
      "▁இவர்களின்": 7786,
      "▁ராணுவ": 7787,
      "▁அடிப்படையாக": 7788,
      "▁(அல்லது": 7789,
      "ணன்": 7790,
      "▁கொழுப்பு": 7791,
      "▁ராபர்ட்": 7792,
      "▁குடியிரு": 7793,
      "▁தற்காலிக": 7794,
      "ீழ்": 7795,
      "▁தலைநகரான": 7796,
      "▁வாழ்கின்றனர்.": 7797,
      "களின்": 7798,
      "நிக": 7799,
      "துடன்": 7800,
      "▁id=\"280": 7801,
      "▁url=\"https://ta.wikipedia.org/wiki?curid=280": 7802,
      "▁குறியீ": 7803,
      "ங்டன்": 7804,
      "பதிய": 7805,
      "ி\n": 7806,
      "▁சத்திய": 7807,
      "▁விவரி": 7808,
      "▁நடக்கும்": 7809,
      "வன்.": 7810,
      "மூல": 7811,
      "31\"": 7812,
      "▁திரைப்படத்தின்": 7813,
      "▁செல்சிய": 7814,
      "▁பங்களிப்ப": 7815,
      "▁பேண": 7816,
      "▁ஏற்பாடு": 7817,
      "▁நகைச்சுவ": 7818,
      "▁கதிர்வீ": 7819,
      "▁உருவாகிறது.": 7820,
      "விற்கு": 7821,
      "ann": 7822,
      "▁தலைப்பில்": 7823,
      "ரியை": 7824,
      "ஸ்டு": 7825,
      "▁செய்யப்படுகிறது.": 7826,
      "▁சொல்க": 7827,
      "க்கிந்திய": 7828,
      "▁உருவாக்கினார்.": 7829,
      "▁உற்பத்திய": 7830,
      "▁கண்ணாடி": 7831,
      "73\"": 7832,
      "தியின்": 7833,
      "▁id=\"278": 7834,
      "▁url=\"https://ta.wikipedia.org/wiki?curid=278": 7835,
      "ர்களைப்": 7836,
      "▁தொடங்கப்பட்டது.": 7837,
      "ிலிருந்தே": 7838,
      "▁ஆட்சியில்": 7839,
      "▁எவ்வ": 7840,
      "▁மாள": 7841,
      "ப்பதன்": 7842,
      "சிற": 7843,
      "▁பன்": 7844,
      "▁பின்னா": 7845,
      "▁அக்கால": 7846,
      "▁தண்டனை": 7847,
      "▁நான்காம்": 7848,
      "-18": 7849,
      "35\"": 7850,
      "49\"": 7851,
      "O)": 7852,
      "adi": 7853,
      "கொ": 7854,
      "▁கில்": 7855,
      "ாவுடன்": 7856,
      "▁பாடக": 7857,
      "▁எதிர்பார்க்க": 7858,
      "திரு": 7859,
      "▁1927": 7860,
      "ராகும்.": 7861,
      "ஜெ": 7862,
      "மாவட்ட": 7863,
      "▁பிரீ": 7864,
      "புளோ": 7865,
      "ப்படுத்தி": 7866,
      "▁செலவு": 7867,
      "41\"": 7868,
      "77\"": 7869,
      "▁அர்ஜ": 7870,
      "ிறார்கள்": 7871,
      "லைச்": 7872,
      "▁1973": 7873,
      "▁id=\"339": 7874,
      "▁url=\"https://ta.wikipedia.org/wiki?curid=339": 7875,
      "▁பேரரசர்": 7876,
      "▁குழுவில்": 7877,
      "43\"": 7878,
      "ினின்": 7879,
      "மாகும்": 7880,
      "▁வெப்பநிலையில்": 7881,
      "▁வெளிநாட்டு": 7882,
      "▁பிடிக்க": 7883,
      "32\"": 7884,
      "ly": 7885,
      "ாட்சியில்": 7886,
      "▁சய": 7887,
      "▁கொண்டே": 7888,
      "▁மூலம்,": 7889,
      "71\"": 7890,
      "▁அரே": 7891,
      "▁அமைதி": 7892,
      "▁நிறம்": 7893,
      "▁டா": 7894,
      "34\"": 7895,
      "▁காட்": 7896,
      "▁(c": 7897,
      "▁மாட": 7898,
      "▁யார்": 7899,
      "▁id=\"32": 7900,
      "▁url=\"https://ta.wikipedia.org/wiki?curid=32": 7901,
      "▁400": 7902,
      "▁வினைய": 7903,
      "▁நகைச்சுவை": 7904,
      "ந்தனர்.": 7905,
      "ர்கா": 7906,
      "▁பாடி": 7907,
      "ஸ்டன்": 7908,
      "▁1968": 7909,
      "▁விடய": 7910,
      "▁நிகழ்வு": 7911,
      "▁விளைவு": 7912,
      "▁என்பவரின்": 7913,
      "▁பாரசீக": 7914,
      "33\"": 7915,
      "▁எஞ்சிய": 7916,
      "ார்வ": 7917,
      "ின.\n": 7918,
      "▁சிறித": 7919,
      "▁இவ்விரு": 7920,
      "▁பாக்டீ": 7921,
      "48\"": 7922,
      "சம": 7923,
      "த்திற": 7924,
      "▁நோக்கம்": 7925,
      "▁இத்திட்ட": 7926,
      "▁பாதை": 7927,
      "▁பிரதமர்": 7928,
      "விடம்": 7929,
      "ோனிய": 7930,
      "▁வர்க்க": 7931,
      "▁பிரே": 7932,
      "▁தமிழ்,": 7933,
      "▁சட்டத்தின்": 7934,
      "நீதி": 7935,
      "▁புரட்சி": 7936,
      "36\"": 7937,
      "ச்சியம்": 7938,
      "▁ஸ்ப": 7939,
      "▁பாலைவன": 7940,
      "றையில்": 7941,
      "ியிலும்": 7942,
      "தாகத்": 7943,
      "▁சொன்ன": 7944,
      "▁செயல்முறை": 7945,
      "ளால்": 7946,
      "▁அகில": 7947,
      "▁திட்டமிட்ட": 7948,
      "38\"": 7949,
      "▁மக்": 7950,
      "ாகோ": 7951,
      "நிலையை": 7952,
      "▁இனம்": 7953,
      "▁மனைவ": 7954,
      "▁கிரிக்க்ட்": 7955,
      "▁உருவானது.": 7956,
      "▁செயற்கைக்க": 7957,
      "n\"": 7958,
      "▁மில்லிய": 7959,
      "▁சின": 7960,
      "ுவரை": 7961,
      "▁178": 7962,
      "▁குத்த": 7963,
      "▁கம்யூனி": 7964,
      "14\"": 7965,
      "▁இரை": 7966,
      "▁கொண்டது": 7967,
      "▁நடைமுற": 7968,
      "▁கிழக்கிந்திய": 7969,
      "▁மொழி,": 7970,
      "▁அறிஞர்": 7971,
      "▁முடியாது.": 7972,
      "▁மழ": 7973,
      "த்,": 7974,
      "ங்களாகும்.": 7975,
      "▁நிலக்க": 7976,
      "▁சூற": 7977,
      "▁id=\"16": 7978,
      "▁url=\"https://ta.wikipedia.org/wiki?curid=16": 7979,
      "▁நகரங்களில்": 7980,
      "▁சாட்ட": 7981,
      "ின்றார்கள்.": 7982,
      "ையாகவும்": 7983,
      "▁காணப்படுகின்றன.\n": 7984,
      "▁1981": 7985,
      "ுகிறார்கள்.": 7986,
      "▁முள்ள": 7987,
      "ட்டுகள்": 7988,
      "▁ஒருமுறை": 7989,
      "▁அமைச்சர்": 7990,
      "▁சார்பாக": 7991,
      "▁தலைமையிலான": 7992,
      "மண்டல": 7993,
      "▁உழ": 7994,
      "▁உத்திர": 7995,
      "▁ஆண்டும்": 7996,
      "▁நீடித்த": 7997,
      "ிகளைத்": 7998,
      "▁இசையில்": 7999,
      "ஏ.": 8000,
      "▁பக்கம்": 8001,
      "▁விதை": 8002,
      "▁தொகுதிகள்": 8003,
      "ைகளுக்கான": 8004,
      "▁இயக்குநர்": 8005,
      "78\"": 8006,
      "ானை": 8007,
      "▁என்பதில்": 8008,
      "ர்களிடம்": 8009,
      "ப்பட்டுள்ளது": 8010,
      "▁பயணிகள்": 8011,
      "3.": 8012,
      "40\"": 8013,
      "மிகு": 8014,
      "▁எஸ்": 8015,
      "▁கடும்": 8016,
      "▁ஹீ": 8017,
      "▁பட்டியல்\n": 8018,
      "▁மதிப்பிட": 8019,
      "▁ரஷ்ய": 8020,
      "▁குழப்ப": 8021,
      "லுக்கான": 8022,
      "ியலாளர்": 8023,
      "▁title=\"மா": 8024,
      "▁லட்சுமி": 8025,
      "▁8,": 8026,
      "▁உறவ": 8027,
      "ுதிய": 8028,
      "▁என்பதும்": 8029,
      "ind": 8030,
      "▁பொருள்.": 8031,
      "▁பொட்டாசியம்": 8032,
      "ல்\"": 8033,
      "▁பகுதிக்கு": 8034,
      "▁அதிகாரம்": 8035,
      "▁பொதுவ": 8036,
      "▁உரிமைகள்": 8037,
      "▁அங்கீகர": 8038,
      "Cl": 8039,
      "▁1920": 8040,
      "மானது,": 8041,
      "▁பகுதியாகும்.": 8042,
      "▁தலைப்ப": 8043,
      "▁நடித்திருந்தனர்.\n": 8044,
      "▁ஆத்திரேலிய": 8045,
      "44\"": 8046,
      "▁பசி": 8047,
      "▁வெண்ண": 8048,
      "▁இதன": 8049,
      "▁வழங்கப்படும்": 8050,
      "3)": 8051,
      "▁title=\"மு": 8052,
      "▁சாதனை": 8053,
      "▁எண்கள்": 8054,
      "ன்பு": 8055,
      "▁சூப்பர்": 8056,
      "▁id=\"26": 8057,
      "▁url=\"https://ta.wikipedia.org/wiki?curid=26": 8058,
      "▁பயிற்ச": 8059,
      "▁தாவரங்கள்": 8060,
      "▁ஆராய்": 8061,
      "▁ஆங்கிலம்": 8062,
      "▁சரியாக": 8063,
      "▁கய": 8064,
      "▁கோட": 8065,
      "▁தேனி": 8066,
      "ிதை": 8067,
      "▁அவர்களால்": 8068,
      "▁நடவடிக்கைகள்": 8069,
      "▁விஷய": 8070,
      "▁நிர்ணய": 8071,
      "-20": 8072,
      "2,": 8073,
      "ையற்ற": 8074,
      "ஸ்ரீ": 8075,
      "▁மூழ்க": 8076,
      "வேளை": 8077,
      "▁இருந்தும்": 8078,
      "ாக்கி": 8079,
      "37\"": 8080,
      "ற்கள்": 8081,
      "▁பாச": 8082,
      "▁வரையான": 8083,
      "▁பகுப்பாய்வு": 8084,
      "▁ஒடுக்க": 8085,
      "▁கொழு": 8086,
      "லாமல்": 8087,
      "▁title=\"ஹ": 8088,
      "னேட்டு": 8089,
      "மூர்த்தி": 8090,
      "▁உப்ப": 8091,
      "▁மாவட்டத்திலுள்ள": 8092,
      "▁பெற்றோர்": 8093,
      "▁அறிவிக்க": 8094,
      "▁அழைக்கப்படுகிறது.\n": 8095,
      "▁விலங்குகள்": 8096,
      "▁உதவியுடன்": 8097,
      "▁சாம்பியன்": 8098,
      "▁(p": 8099,
      "▁விண்டோ": 8100,
      "▁வான்க": 8101,
      "▁சிவபெருமான்": 8102,
      "▁பெரம்பலூர்": 8103,
      "▁பெண்க": 8104,
      "▁கொட": 8105,
      "ிகளான": 8106,
      "பெரும்": 8107,
      "▁மலைய": 8108,
      "▁புவிய": 8109,
      "▁குறிப்பிடத்தக்கது.\n": 8110,
      "▁(J": 8111,
      "ியாகப்": 8112,
      "▁மாவட்டம்\">\n": 8113,
      "▁id=\"35": 8114,
      "▁url=\"https://ta.wikipedia.org/wiki?curid=35": 8115,
      "▁குழுக்கள்": 8116,
      "▁காரணமாக,": 8117,
      "▁மாகாணம்": 8118,
      "க்குறைய": 8119,
      "குவ": 8120,
      "கிருஷ்ண": 8121,
      "▁மௌ": 8122,
      "▁மார்க்க": 8123,
      "▁வீச": 8124,
      "▁அறியப்படும்": 8125,
      "▁கருதப்படுகிறது.\n": 8126,
      "ne": 8127,
      "▁ஏக்கர்": 8128,
      "▁புன": 8129,
      "வோ,": 8130,
      "▁சதுரங்க": 8131,
      "▁இந்தோனேசிய": 8132,
      "uk": 8133,
      "▁அழிவ": 8134,
      "▁வீச்ச": 8135,
      "▁44": 8136,
      "▁விலங்கு": 8137,
      "▁கூட்டமைப்பு": 8138,
      "▁கதைகள்": 8139,
      "▁The": 8140,
      "18\"": 8141,
      "▁பட்டு": 8142,
      "▁காசி": 8143,
      "▁மீள": 8144,
      "▁ஆயினும்": 8145,
      "▁நிகழ்வுகள்": 8146,
      "▁தயாரிக்கப்பட்ட": 8147,
      "▁விருதுகள்": 8148,
      "▁அவு": 8149,
      "▁நீலக": 8150,
      "▁செய்திகள்": 8151,
      "▁இணைப்பு": 8152,
      "▁பணியாற்றி": 8153,
      "▁கழகத்தில்": 8154,
      "▁பட்டியலிட": 8155,
      "மாட்ட": 8156,
      "▁<br>": 8157,
      "les": 8158,
      "லாச": 8159,
      "▁சேர்": 8160,
      "▁10,": 8161,
      "வல்ல": 8162,
      "▁கலைக்க": 8163,
      "▁தில்ல": 8164,
      "ுகளைத்": 8165,
      "க்கிழ": 8166,
      "▁காலத்தில்,": 8167,
      "▁எடுத்துக்காட்டு": 8168,
      "▁கடற்படை": 8169,
      "13\"": 8170,
      "▁சபா": 8171,
      "▁கோவை": 8172,
      "▁தேடி": 8173,
      "▁துருவ": 8174,
      "▁தமிழர்கள்": 8175,
      "▁கிடையா": 8176,
      "▁கருதப்படும்": 8177,
      "▁சுவாம": 8178,
      "▁தானே": 8179,
      "▁இவ்வாறான": 8180,
      "ஆக": 8181,
      "▁படிவ": 8182,
      "த்துத்": 8183,
      "▁நடி": 8184,
      "▁நாத": 8185,
      "▁ஒற்று": 8186,
      "▁தொழிலாளர்": 8187,
      "▁தெற்கே": 8188,
      "▁வேளாண்": 8189,
      "▁ஆஞ்சநேய": 8190,
      "16\"": 8191,
      "▁கொடி": 8192,
      "▁நீர்த்த": 8193,
      "▁நாட்டை": 8194,
      "▁சதவிகித": 8195,
      "▁பைர": 8196,
      "ுற்ற": 8197,
      "▁அ.": 8198,
      "▁அதற்க": 8199,
      "▁இடங்கள்": 8200,
      "▁இருக்கிறது": 8201,
      "▁கோயில்,": 8202,
      "▁வரை,": 8203,
      "▁இனப்பெருக்க": 8204,
      "▁கலைஞர்": 8205,
      "▁துறவ": 8206,
      "▁கோப்பை": 8207,
      "▁தோராய": 8208,
      "▁மருத்துவம்": 8209,
      "▁கண்டுபிடிக்கப்பட்ட": 8210,
      "மியம்": 8211,
      "▁சமைய": 8212,
      "▁விடுக": 8213,
      "ுடும்ப": 8214,
      "▁திருக்குற": 8215,
      "▁கிங்": 8216,
      "▁id=\"338": 8217,
      "▁url=\"https://ta.wikipedia.org/wiki?curid=338": 8218,
      "▁48": 8219,
      "▁பயிரிட": 8220,
      "▁(இதழ்": 8221,
      "▁கியூ": 8222,
      "டுப": 8223,
      "▁பயின்றார்.": 8224,
      "aj": 8225,
      "ாரா": 8226,
      "▁வெப்பம்": 8227,
      "▁பண்பாடு": 8228,
      "27\"": 8229,
      "▁அணிவ": 8230,
      "▁எழுப்ப": 8231,
      "▁நடித்துள்ளனர்.\n": 8232,
      "▁தாக்கம்": 8233,
      "▁செயல்பட்டு": 8234,
      "▁வேட்பாளராக": 8235,
      "11\"": 8236,
      "39\"": 8237,
      "ட்டன்": 8238,
      "▁ஆர்க": 8239,
      "ற்றல்": 8240,
      "▁தொண்ட": 8241,
      "▁வான்ப": 8242,
      "▁வீழ்த்த": 8243,
      "▁கோயிலின்": 8244,
      "த்துக்கள்": 8245,
      "▁என்பதன்": 8246,
      "▁எடுத்துச்": 8247,
      "'s": 8248,
      "த்தார்": 8249,
      "வற்றில்": 8250,
      "▁கோயில்கள்": 8251,
      "ith": 8252,
      "▁),": 8253,
      "▁கச": 8254,
      "ப்பண": 8255,
      "ங்கர": 8256,
      "▁ஒர": 8257,
      "▁1945": 8258,
      "ங்களிலும்,": 8259,
      "▁தொடரின்": 8260,
      "▁திரைப்படங்கள்": 8261,
      "்களையும்": 8262,
      "▁திரௌ": 8263,
      "▁பாலியல்": 8264,
      "▁துணைக்க": 8265,
      "▁தொழிற்": 8266,
      "▁வேட்டையா": 8267,
      "ஆர்.": 8268,
      "▁மும்": 8269,
      "▁சாள": 8270,
      "ிவே": 8271,
      "▁கோத": 8272,
      "▁இத்தீ": 8273,
      "▁ஸ்டீ": 8274,
      "▁ஃபி": 8275,
      "-200": 8276,
      "ெதிர": 8277,
      "ியானது": 8278,
      "▁\"A": 8279,
      "ரும்பு": 8280,
      "▁பயன்படுத்தப்படுகிறது.\n": 8281,
      "▁ராவ்": 8282,
      "▁6.": 8283,
      "▁ஏற்படுத்திய": 8284,
      "tri": 8285,
      "▁புவியின்": 8286,
      "▁அலுவலர்": 8287,
      "poem": 8288,
      "க்கின்": 8289,
      "ையிலுள்ள": 8290,
      "▁நடுவண்": 8291,
      "ிருந்தார்.\n": 8292,
      "▁தெளிவாக": 8293,
      "▁இந்நகரம்": 8294,
      "▁title=\"கா": 8295,
      "▁நிலம்": 8296,
      "▁அழிக்க": 8297,
      "▁இக்கால": 8298,
      "▁பிரான்சு": 8299,
      "▁தீவிரவாத": 8300,
      "மரு": 8301,
      "▁வறு": 8302,
      "▁பழங்குடி": 8303,
      "ல்களும்": 8304,
      "▁ஒலிபர": 8305,
      "▁இராச்சியத்தின்": 8306,
      "▁தொகுதிக்கு": 8307,
      "▁ஏற்படுகிறது.": 8308,
      "▁1954": 8309,
      "ுக்கிய": 8310,
      "▁பாறை": 8311,
      "ித்திய": 8312,
      "▁காண்க": 8313,
      "▁பரம": 8314,
      "▁பாதி": 8315,
      "▁கிலோமீட்ட": 8316,
      "பில்": 8317,
      "ிவி": 8318,
      "▁பகுதியான": 8319,
      "ெடுக்கப்பட்ட": 8320,
      "▁ஹால": 8321,
      "போதும்": 8322,
      "முழ": 8323,
      "▁தண": 8324,
      "▁அண்மையில்": 8325,
      "ந்தம்": 8326,
      "▁விழிப்பு": 8327,
      "▁title=\"வி": 8328,
      "▁காய்ச்ச": 8329,
      "▁தலைநகரம்": 8330,
      "ஜர்": 8331,
      "னவாக": 8332,
      "றித": 8333,
      "ா\n": 8334,
      "வெள்ள": 8335,
      "▁விரிவான": 8336,
      "17\"": 8337,
      "ையிலேயே": 8338,
      "ற்றை": 8339,
      "▁கோர": 8340,
      "▁அதிகள": 8341,
      "▁கணிச": 8342,
      "ani": 8343,
      "▁அப்பா": 8344,
      "னியன்": 8345,
      "▁வேர்": 8346,
      "▁உணர்த்த": 8347,
      "▁திறந்து": 8348,
      "▁சமயங்களில்": 8349,
      "டாது": 8350,
      "▁மாணவர்கள": 8351,
      "ுகின்றன": 8352,
      "▁கருது": 8353,
      "▁7,": 8354,
      "24\"": 8355,
      "லும்,": 8356,
      "▁கழு": 8357,
      "▁எனவும்,": 8358,
      "▁முதலாக": 8359,
      "▁தேவாலய": 8360,
      "▁(\"Th": 8361,
      "டிகை": 8362,
      "த்தலை": 8363,
      "▁வளர்": 8364,
      "▁டி.எ": 8365,
      "▁அறியப்படுகிறது.": 8366,
      "▁மைக்கேல்": 8367,
      "ன்சு": 8368,
      "▁விருந்த": 8369,
      "மையைக்": 8370,
      "▁for": 8371,
      "▁ஐரோப்பா": 8372,
      "▁விஜய்": 8373,
      "▁கடற்கர": 8374,
      "23\"": 8375,
      "்டி": 8376,
      "▁தொன்": 8377,
      "டியின்": 8378,
      "▁படப்பி": 8379,
      "▁id=\"22": 8380,
      "▁url=\"https://ta.wikipedia.org/wiki?curid=22": 8381,
      "▁நெதர்": 8382,
      "▁CH": 8383,
      "▁சந்தித்த": 8384,
      "▁இசைக்குழுவ": 8385,
      "▁கரையில்": 8386,
      "▁கல்வெட்டு": 8387,
      "▁முதன்முதலாக": 8388,
      "பில": 8389,
      "ட்\"": 8390,
      "▁சிறையில்": 8391,
      "▁பகுதிகளிலும்": 8392,
      "▁பரிந்துரைக்க": 8393,
      "▁விளங்கியது.": 8394,
      "▁அகாத": 8395,
      "ைகளைச்": 8396,
      "▁தொலைவிலும்": 8397,
      "▁வெளியிட்டது.": 8398,
      "▁அடைந்து": 8399,
      "▁செயல்படுகிறது.": 8400,
      "▁வியாபார": 8401,
      "%,": 8402,
      "வார்": 8403,
      "▁சாம்": 8404,
      "ராத்திரி": 8405,
      "ுறி": 8406,
      "▁கேள்": 8407,
      "▁ஆகியவற்றைக்": 8408,
      "▁சீனாவின்": 8409,
      "▁எல்.": 8410,
      "▁அருங்காட்சியகம்": 8411,
      "▁இமய": 8412,
      "ிக்கொண்டு": 8413,
      "▁வரையறை": 8414,
      "▁குறிப்பிடத்தக்கது.": 8415,
      "▁மடங்கு": 8416,
      "▁ரசிக": 8417,
      "▁தொடர்ச்சியான": 8418,
      "▁மைக்ரோசா": 8419,
      "ஃபா": 8420,
      "▁ஆசிரியராக": 8421,
      "▁செய்வதற்கு": 8422,
      "▁கதாப்பாத்திர": 8423,
      "▁உட்புற": 8424,
      "▁பிலி": 8425,
      "▁கறு": 8426,
      "விளை": 8427,
      "ுகளும்,": 8428,
      "வரையும்": 8429,
      "▁சந்திக்க": 8430,
      "▁அயர்": 8431,
      "▁கர்த": 8432,
      "ாளரான": 8433,
      "▁id=\"348": 8434,
      "▁url=\"https://ta.wikipedia.org/wiki?curid=348": 8435,
      "▁வேறுபடுத்த": 8436,
      "ளம்,": 8437,
      "ற்றின்": 8438,
      "மா,": 8439,
      "ங்குளம்": 8440,
      "ழ்க்": 8441,
      "▁அறிமுகம்": 8442,
      "10\"": 8443,
      "nd": 8444,
      "▁தசை": 8445,
      "▁அப்பட": 8446,
      "▁எத்த": 8447,
      "விட்டு": 8448,
      "▁பொதுத்": 8449,
      "▁புரட்டா": 8450,
      "▁மந்த": 8451,
      "▁title=\"பிர": 8452,
      "மீன்": 8453,
      "▁உணர்வு": 8454,
      "ச்சை": 8455,
      "ிகளுக்கான": 8456,
      "▁பூஜ": 8457,
      "▁வரம்ப": 8458,
      "▁கட்டுரை": 8459,
      "▁நுண": 8460,
      "▁நோய்க்க": 8461,
      ".இ": 8462,
      "ர்வே": 8463,
      "▁நீரை": 8464,
      "▁கட்டத்தில்": 8465,
      "▁இசையமைப்ப": 8466,
      "▁பாக்கித்தான்": 8467,
      "▁அட்லா": 8468,
      "சிக்": 8469,
      "▁r": 8470,
      "மாகச்": 8471,
      "▁(\"E": 8472,
      "▁முன்பே": 8473,
      "ுமிடத்தில்": 8474,
      "▁பேட்": 8475,
      "ல்களுக்கு": 8476,
      "▁நாட்டுப்புற": 8477,
      "▁பிரச்சன": 8478,
      "▁நடித்து": 8479,
      "ுக்கொ": 8480,
      "▁பேருந்த": 8481,
      "▁அழைப்ப": 8482,
      "▁கொடுக்கப்பட்ட": 8483,
      "ையியல்": 8484,
      "ிரம": 8485,
      "▁ஏதே": 8486,
      "வாழ்": 8487,
      "குரு": 8488,
      "▁வளைக": 8489,
      "er)": 8490,
      "▁1966": 8491,
      "பேட்டை": 8492,
      "▁பாகு": 8493,
      "▁சேவைகள்": 8494,
      "▁பார்த்து": 8495,
      "▁அங்கிருந்து": 8496,
      "15\"": 8497,
      "ிட்ச": 8498,
      "ூடாக": 8499,
      "▁ஒல்ல": 8500,
      "▁கிரே": 8501,
      "▁பதில்": 8502,
      "▁கடவுளின்": 8503,
      "▁பூசைகள்": 8504,
      "▁சுல்தான": 8505,
      "க்கூடும்.": 8506,
      "▁ஒட்டுமொத்த": 8507,
      "ாசிய": 8508,
      "்சி": 8509,
      "▁என்பவரை": 8510,
      "▁பிற்காலத்தில்": 8511,
      "12\"": 8512,
      "▁ஊர்வ": 8513,
      "▁ஊராட்ச": 8514,
      "▁பொருட்டு": 8515,
      "ப்பினை": 8516,
      "மைக்கு": 8517,
      "▁ஊட": 8518,
      "▁மாசு": 8519,
      "▁இதற்கான": 8520,
      "ஞ்சல்": 8521,
      "▁(\"J": 8522,
      "நாட்டின்": 8523,
      "▁பிற்பகுதியில்": 8524,
      "-உ": 8525,
      ".com": 8526,
      "கமான": 8527,
      "▁இலை": 8528,
      "பெற": 8529,
      "▁முறையான": 8530,
      "▁எதிர்கால": 8531,
      "▁மயிலாடு": 8532,
      "25\"": 8533,
      "லங்க": 8534,
      "ந்தன்": 8535,
      "▁எனப்படுகிறது.": 8536,
      "ங்களே": 8537,
      "▁இலத்தீன்": 8538,
      "▁இராச்சியம்": 8539,
      "▁திருச்சபை": 8540,
      "ப்பால்": 8541,
      "▁நச்சு": 8542,
      "▁title=\"பா": 8543,
      "▁கலக்க": 8544,
      "▁வழிபட்ட": 8545,
      "▁பறவை": 8546,
      "▁நிபுண": 8547,
      "சாரம்": 8548,
      "ியிலிருந்து": 8549,
      "▁ஆண்களின்": 8550,
      "▁நீட்ட": 8551,
      "▁இணைத்து": 8552,
      "சப": 8553,
      "▁ல்,": 8554,
      "ண்டின்": 8555,
      "ானது.": 8556,
      "ுவிட்டு": 8557,
      "▁செ.மீ": 8558,
      "▁பயிர்": 8559,
      "▁இனத்த": 8560,
      "ical": 8561,
      "▁கழிவ": 8562,
      "▁பொருட்களின்": 8563,
      "வட்ட": 8564,
      "▁இவற்றுள்": 8565,
      "▁அளவிட": 8566,
      "▁1958": 8567,
      "▁ஒன்றியத்தின்": 8568,
      ".கா.": 8569,
      "▁தலைநகராக": 8570,
      "rom": 8571,
      "சொ": 8572,
      "ம்பரில்": 8573,
      "▁படிப்படியாக": 8574,
      "ரொ": 8575,
      "▁(சி": 8576,
      "ாளர்,": 8577,
      "▁12,": 8578,
      "▁11,": 8579,
      "▁சன்னதிகளும்,": 8580,
      "20\"": 8581,
      "ுமே": 8582,
      "ையில": 8583,
      "▁கிராம்": 8584,
      "▁மெல்ல": 8585,
      "மீக": 8586,
      "art": 8587,
      "▁வாய்ப்பாட்ட": 8588,
      "▁லூயி": 8589,
      "s\")": 8590,
      "▁நன்க": 8591,
      "▁செவ்வ": 8592,
      "▁விஸ்வ": 8593,
      "ப்படவில்லை": 8594,
      "▁ஓய்வ": 8595,
      "▁கலப்பு": 8596,
      "▁நகருக்கு": 8597,
      "▁உதாரணமாக": 8598,
      "▁சிட்": 8599,
      "ங்களுக்குப்": 8600,
      "▁பொறுப்பேற்ற": 8601,
      "2.": 8602,
      "▁பொல": 8603,
      "▁பாசு": 8604,
      "வாடி": 8605,
      "▁அதிகபட்ச": 8606,
      "▁கூட்டணி": 8607,
      "▁மறைந்த": 8608,
      "▁மரியா": 8609,
      "த்தை,": 8610,
      "▁ஏறக்குறைய": 8611,
      "▁சூழ்நில": 8612,
      "▁க.": 8613,
      "▁120": 8614,
      "▁பொருளியல்": 8615,
      "ில்லாத": 8616,
      "பதியாக": 8617,
      "த்துறையில்": 8618,
      "ுவில்": 8619,
      "ம்பா": 8620,
      "▁title=\"தே": 8621,
      "▁திருக்க": 8622,
      "▁அணிக்காக": 8623,
      "▁காவிரி": 8624,
      "▁நிகழ்ச்சியில்": 8625,
      "▁மகாபார": 8626,
      "▁புரட்டாசி": 8627,
      "தோடு": 8628,
      "▁பிரிந்து": 8629,
      "▁விளி": 8630,
      "▁லோக": 8631,
      "▁முகம்மது": 8632,
      "]],": 8633,
      "ட்தொ": 8634,
      "ிண": 8635,
      "ிதழ": 8636,
      "▁அரண்மன": 8637,
      "yl": 8638,
      "▁நமது": 8639,
      "▁நாட்டுப்": 8640,
      "60\"": 8641,
      "▁மனிதர்கள்": 8642,
      "ந்தூர்": 8643,
      "▁இவர்களுக்கு": 8644,
      "ழ்வா": 8645,
      "▁கிரக": 8646,
      "▁உடலின்": 8647,
      "(III)": 8648,
      "▁லியோ": 8649,
      "சாத்": 8650,
      "▁இந்நோ": 8651,
      "▁சுற்றியுள்ள": 8652,
      "▁ஆரோக்கிய": 8653,
      "நூல்": 8654,
      "ிர்த": 8655,
      "http://": 8656,
      "▁ஐம்ப": 8657,
      "▁மத்தியப்": 8658,
      "▁பரப்பளவ": 8659,
      "▁கொழும்ப": 8660,
      "▁கடித": 8661,
      "▁நாற்ப": 8662,
      "▁நீரி": 8663,
      "▁49": 8664,
      "தாய்": 8665,
      "ராட்டிர": 8666,
      "பன்": 8667,
      "ுள்ளார்": 8668,
      "ிகளுள்": 8669,
      "கோணம்": 8670,
      "est": 8671,
      "▁முடிவுக்கு": 8672,
      "▁ஒலிய": 8673,
      "ாவிட்ட": 8674,
      "▁இவரே": 8675,
      "▁குறிப்பு": 8676,
      "▁சமாத": 8677,
      "▁பொருளை": 8678,
      "▁அடிப்படையிலான": 8679,
      "▁கிழக்கே": 8680,
      "▁9,": 8681,
      "▁மருத்துவமனை": 8682,
      "▁பற்றிக்": 8683,
      "26\"": 8684,
      "▁சின்": 8685,
      "தாகவே": 8686,
      "▁பயன்பாட்டில்": 8687,
      "▁முன்னில": 8688,
      "▁தயாரிப்பில்": 8689,
      "▁ஜே.": 8690,
      "7.": 8691,
      "A)": 8692,
      "ுகொண்டு": 8693,
      "ின்றனர்": 8694,
      "▁காணப்படுகின்றது.": 8695,
      "▁மனிதன்": 8696,
      "▁கி.பி": 8697,
      "▁மக்கட்தொ": 8698,
      "▁ஈர்க்க": 8699,
      "வணை": 8700,
      "ாகு": 8701,
      "▁மார்க்": 8702,
      "▁கொண்டனர்.": 8703,
      "▁எதிர்ப்ப": 8704,
      "▁அறிஞர்கள்": 8705,
      "hi": 8706,
      "x\"": 8707,
      "ணியின்": 8708,
      "▁·": 8709,
      "▁வெல்ல": 8710,
      "▁குழாய்": 8711,
      "▁மனம்": 8712,
      "ark": 8713,
      "▁உட்பட்டது.\n": 8714,
      "99\"": 8715,
      "மித்": 8716,
      "▁ஹோட்ட": 8717,
      "▁விருத": 8718,
      "▁நிலையத்தில்": 8719,
      "▁1959": 8720,
      "▁பதினெட்ட": 8721,
      "▁அதன": 8722,
      "▁ஆண்டுக்கு": 8723,
      "▁தீவில்": 8724,
      "▁ஏற்படுக": 8725,
      "வராகவும்": 8726,
      "நோய": 8727,
      "▁அமைச்சராக": 8728,
      "▁பின்னணி": 8729,
      "▁காதல": 8730,
      "▁பெருமளவு": 8731,
      "▁ஆப்கான": 8732,
      "0%": 8733,
      "ச்சல": 8734,
      "▁வேதிப்ப": 8735,
      "டியான": 8736,
      "▁(இந்த": 8737,
      "▁மண்டலத்தில்": 8738,
      "▁de": 8739,
      "்களாக": 8740,
      "▁ரீதியான": 8741,
      "▁கடினமான": 8742,
      "ஜன": 8743,
      "ஸை": 8744,
      "▁கரி": 8745,
      "▁தொற்று": 8746,
      "▁1946": 8747,
      "▁முதி": 8748,
      "▁வீடுகள்": 8749,
      "▁மெதுவாக": 8750,
      "முடி": 8751,
      "▁1963": 8752,
      "▁கட்டுப்பாட்டு": 8753,
      "▁மோசமான": 8754,
      "ளிக்கும்": 8755,
      "▁வேற்று": 8756,
      "நாராயண": 8757,
      "▁பட்டிய": 8758,
      "▁பெறப்பட்ட": 8759,
      "மண்ட": 8760,
      "▁இட்ட": 8761,
      "▁இடு": 8762,
      "▁இதன்ப": 8763,
      "▁வகிக்க": 8764,
      "▁வகைகளில்": 8765,
      "▁தேசியக்": 8766,
      "▁சங்கர": 8767,
      "▁தவறான": 8768,
      "22\"": 8769,
      "udi": 8770,
      "ீசிய": 8771,
      "▁வசதிகள்": 8772,
      "▁குடும்பத்தைச்": 8773,
      "▁கல்லூரிய": 8774,
      "க்குறிச்சி": 8775,
      "▁வாழ்க்கையில்": 8776,
      "▁புற்றுநோய": 8777,
      "29\"": 8778,
      "4,": 8779,
      "ப்புள்ள": 8780,
      "▁என்றாலும்,": 8781,
      "▁ஹைட்": 8782,
      "ஃப்ட்": 8783,
      "▁1961": 8784,
      "▁ஆணையம்": 8785,
      "93\"": 8786,
      "▁திருச்சி": 8787,
      "▁உறுப்பினரும்": 8788,
      "▁இந்நிக": 8789,
      "▁கிழக்குப்": 8790,
      "▁சேர்மங்கள்": 8791,
      "C)": 8792,
      "லானது": 8793,
      "ூராட்சி": 8794,
      "▁எட": 8795,
      "த்யா": 8796,
      "லா,": 8797,
      "▁செயலாக்க": 8798,
      "ர்க்கை": 8799,
      "▁நடத்தப்பட்ட": 8800,
      "▁அறிமுகமானார்.": 8801,
      "▁கரிய": 8802,
      "▁நதி": 8803,
      "▁1949": 8804,
      "▁மெய": 8805,
      "▁நடைமுறையில்": 8806,
      "▁தாவரவ": 8807,
      "▁Re": 8808,
      "▁அப்போதைய": 8809,
      "▁கையில்": 8810,
      "▁கூற்று": 8811,
      "▁அல்ல.": 8812,
      "▁கூறுகிறார்.": 8813,
      "▁மூலவர்": 8814,
      "▁விளையாட்டுப்": 8815,
      "சரி": 8816,
      "▁பயன்பட்ட": 8817,
      "▁சித்தரிக்க": 8818,
      "ங்ட": 8819,
      "ாா்.": 8820,
      "▁என்பர்.": 8821,
      "▁காலத்தின்": 8822,
      "▁வடிவத்தில்": 8823,
      "▁மரங்கள்": 8824,
      "▁இயலாத": 8825,
      "▁விழுக்காடு": 8826,
      "ஃபி": 8827,
      "ன்த": 8828,
      "ுறிச்சி": 8829,
      "▁பெருக": 8830,
      "▁அவசர": 8831,
      "▁அரசால்": 8832,
      "▁தனிப்ப": 8833,
      "ஜி.": 8834,
      "▁வாடிக்கையாள": 8835,
      "ையிற": 8836,
      "வாயில்": 8837,
      "ென்றால்": 8838,
      "98\"": 8839,
      "▁ராக்": 8840,
      "ிறை": 8841,
      "ன்னிய": 8842,
      "▁அமைத்து": 8843,
      "▁காலத்திற்கு": 8844,
      "▁தூரம்": 8845,
      "▁படிப்பை": 8846,
      "ராஜன்": 8847,
      "ோட்டம்": 8848,
      "▁உதவுகிறது.": 8849,
      "▁கும்": 8850,
      "▁காண்ட": 8851,
      "▁(W": 8852,
      "ையாகும்.\n": 8853,
      "▁கட்டுப்பாடு": 8854,
      "ுமாறு": 8855,
      "▁இப்பகுதி": 8856,
      "▁மேடை": 8857,
      "▁(\"I": 8858,
      "▁33": 8859,
      "▁அவர்களுடைய": 8860,
      "▁ஐந்தாம்": 8861,
      "ஹோ": 8862,
      "ெரு": 8863,
      "▁அவற்றுள்": 8864,
      "▁வெளியில்": 8865,
      "▁பவுல்": 8866,
      "னாவ": 8867,
      "ியாக்க": 8868,
      "▁ஒன்றாகும்.\n": 8869,
      "லியம்": 8870,
      "▁மாதங்கள்": 8871,
      "▁வகையைச்": 8872,
      "▁உணவாக": 8873,
      "▁மோட்ட": 8874,
      "▁தோல்வ": 8875,
      "88\"": 8876,
      "▁கட்சிய": 8877,
      "ங்களாகப்": 8878,
      "▁வெளியீடு": 8879,
      "▁தொடர்பாக": 8880,
      "▁ஒளிப்பட": 8881,
      "▁பழங்கால": 8882,
      "▁பெரும்பான்மையான": 8883,
      "▁முரண்": 8884,
      "▁இண்ட": 8885,
      "▁விழாவில்": 8886,
      "▁இதழில்": 8887,
      "ஷே": 8888,
      "ினால்,": 8889,
      "▁எண்ணிக்கையில்": 8890,
      "51\"": 8891,
      "man": 8892,
      "கள": 8893,
      "▁இருக்கு": 8894,
      "▁இந்தியன்": 8895,
      "▁திரைய": 8896,
      "tor": 8897,
      "▁களை": 8898,
      "▁176": 8899,
      "▁செறிவ": 8900,
      "▁தவிர,": 8901,
      "64\"": 8902,
      "லிலும்": 8903,
      "▁பகா": 8904,
      "▁1944": 8905,
      "▁மெல்லிய": 8906,
      "▁15,": 8907,
      "ல்களையும்": 8908,
      "ப்படுகிறார்.\n": 8909,
      "▁ஆரணி": 8910,
      "▁போர்த்துக்கேய": 8911,
      "▁தொன்ம": 8912,
      "ிவில": 8913,
      "வார்கள்.": 8914,
      "▁அடிப்படையில்,": 8915,
      "▁பட்டியல்\">\n": 8916,
      "நோக்கி": 8917,
      "▁சிறப்புப்": 8918,
      "▁கல்லூரி,": 8919,
      "21\"": 8920,
      "நாம": 8921,
      "ன்மா": 8922,
      "▁இன்ப": 8923,
      "▁சிம்": 8924,
      "▁இணைப்ப": 8925,
      "▁1955": 8926,
      "▁இயல்பு": 8927,
      "63\"": 8928,
      "▁உவ": 8929,
      "▁கொட்ட": 8930,
      "▁ஜப்பானிய": 8931,
      "▁அன்றைய": 8932,
      "▁குருவ": 8933,
      "புரோ": 8934,
      "▁மலைத்தொட": 8935,
      "▁இணைக்கப்பட்ட": 8936,
      "▁வலிமை": 8937,
      "▁மார்கழி": 8938,
      "▁வடிவமைக்கப்பட்ட": 8939,
      "▁சிவாஜி": 8940,
      "ேத": 8941,
      "▁1939": 8942,
      "▁தலைவன்": 8943,
      "ப்படுவதில்லை.": 8944,
      "▁அனுமத": 8945,
      "▁ஒருங்கிணைந்த": 8946,
      "▁பணிபுரிந்த": 8947,
      "▁பின்னாளில்": 8948,
      "har": 8949,
      "ழிவு": 8950,
      "▁பென": 8951,
      "▁உள்ளார்.\n": 8952,
      "▁title=\"சு": 8953,
      "▁38": 8954,
      "த்தொகை": 8955,
      "▁வசித்து": 8956,
      "83\"": 8957,
      "90\"": 8958,
      "லிருந்து": 8959,
      "▁Y": 8960,
      "▁அசோ": 8961,
      "▁சிக்": 8962,
      "▁மேட": 8963,
      "▁பயன்படுத்தப்பட்டது.": 8964,
      "▁தமிழ்ச்": 8965,
      "▁பிராமண": 8966,
      "ாத்த": 8967,
      "▁குவா": 8968,
      "ையாகப்": 8969,
      "ுவதற்க": 8970,
      "▁நெட்": 8971,
      "▁தொகைக்": 8972,
      "▁குடியேற": 8973,
      "▁செய்யப்பட்டார்.": 8974,
      "லிங்கம்": 8975,
      "▁நன்றாக": 8976,
      "54\"": 8977,
      "58\"": 8978,
      "ுடன்,": 8979,
      "▁அமைந்திருந்த": 8980,
      "▁தலங்களில்": 8981,
      "96\"": 8982,
      "ுபடி": 8983,
      "▁நடிப்ப": 8984,
      "▁நிலந": 8985,
      "▁கருத்தில்": 8986,
      "▁அகர": 8987,
      "▁உந்த": 8988,
      "▁கிண": 8989,
      "ணிப்பு": 8990,
      "▁இருந்து,": 8991,
      "▁காகித": 8992,
      "▁அளிப்ப": 8993,
      "▁மலையில்": 8994,
      "▁நீளமான": 8995,
      "▁தூரத்தில்": 8996,
      "சலே": 8997,
      "▁இ.": 8998,
      "▁எண்க": 8999,
      "ானில்": 9000,
      "▁அழிந்து": 9001,
      "ஸ்வரர்,": 9002,
      "▁திசையில்": 9003,
      "28\"": 9004,
      "62\"": 9005,
      "ம்த": 9006,
      "▁அர்ப்ப": 9007,
      "▁நிலவிய": 9008,
      "▁இறப்பு": 9009,
      "▁கல்வியை": 9010,
      "tern": 9011,
      "▁பாகிஸ்தான்": 9012,
      "க்ட்": 9013,
      "▁பித்த": 9014,
      "ேயுள்ள": 9015,
      "▁பாரதி": 9016,
      "▁1951": 9017,
      "▁தேவைப்படும்": 9018,
      "▁மின்னழுத்த": 9019,
      "▁அட்டவணை": 9020,
      "▁பிரதிநிதித்துவ": 9021,
      "னார்.": 9022,
      "ர்த்தி,": 9023,
      "முற்ற": 9024,
      "ஸ்க்": 9025,
      "▁பொறுப்பு": 9026,
      "▁புரூ": 9027,
      "▁உயர்நிலை": 9028,
      "ாளராகவும்": 9029,
      "▁அமைக்கப்பட்டது.": 9030,
      "▁வழிவகு": 9031,
      "▁தெரிகிறது.": 9032,
      "▁ஆரிய": 9033,
      "▁கொடிய": 9034,
      "▁ஊடாக": 9035,
      "ரோக": 9036,
      "▁இறப்ப": 9037,
      "▁கீழ்க்காணும்": 9038,
      "▁தலைவராகவும்": 9039,
      "▁அங்கீக": 9040,
      "52\"": 9041,
      "94\"": 9042,
      "▁திவ": 9043,
      "▁சத்த": 9044,
      "ையினை": 9045,
      "வில்,": 9046,
      "▁பிறப்ப": 9047,
      "▁சட்டப்படி": 9048,
      "வர்ட்": 9049,
      "▁இத்தொ": 9050,
      "▁ஆனது.": 9051,
      "▁நாயக்க": 9052,
      "▁இப்படம்": 9053,
      "▁ஐந்தாவது": 9054,
      "▁அரசியலமைப்பு": 9055,
      "66\"": 9056,
      "ஜின": 9057,
      "▁ஒர்": 9058,
      "▁உள்ளது,": 9059,
      "▁வாக்கு": 9060,
      "▁அமீ": 9061,
      "▁பொதுமக்க": 9062,
      "▁வட்டத்தின்": 9063,
      "ாள்.\n": 9064,
      "▁நரம்பு": 9065,
      "▁தருவ": 9066,
      "▁மேய": 9067,
      "▁எனலாம்.": 9068,
      "▁வேகம்": 9069,
      "ாயிரம்": 9070,
      "▁முன்னரே": 9071,
      "வரும்,": 9072,
      "▁மொழியின்": 9073,
      "55\"": 9074,
      "ஃபெ": 9075,
      "ற்காடு": 9076,
      "▁நிலப்பகுத": 9077,
      "▁அதிகாரி": 9078,
      "▁id=\"368": 9079,
      "▁url=\"https://ta.wikipedia.org/wiki?curid=368": 9080,
      "▁எழுத்துக்கள்": 9081,
      "92\"": 9082,
      "▁(து": 9083,
      "▁id=\"6": 9084,
      "▁url=\"https://ta.wikipedia.org/wiki?curid=6": 9085,
      "▁கடலோ": 9086,
      "ong": 9087,
      "வரிசை": 9088,
      "▁title=\"கொ": 9089,
      "▁சோழன்": 9090,
      "53\"": 9091,
      "aw": 9092,
      "ுன": 9093,
      "▁தூக்க": 9094,
      "ன்கோ": 9095,
      "▁160": 9096,
      "▁கதிரியக்க": 9097,
      "▁சாம்பல்": 9098,
      "65\"": 9099,
      "இந்திய": 9100,
      "ம்கள்": 9101,
      "ந்தோ": 9102,
      "ord": 9103,
      "ருக்கள்": 9104,
      "▁இவ்வு": 9105,
      "▁பங்குனி": 9106,
      "▁வலிமையான": 9107,
      "1%": 9108,
      "68\"": 9109,
      "ium": 9110,
      "கூ": 9111,
      "ங்கின்": 9112,
      "▁பிரித்து": 9113,
      "▁மூளை": 9114,
      "ியாகும்.\n": 9115,
      "▁பெற்றவர்.": 9116,
      "▁அடக்க": 9117,
      "▁மீனாட்சி": 9118,
      "-3": 9119,
      "▁தளம்": 9120,
      "ிலின்": 9121,
      "▁முகலாய": 9122,
      "▁மருத்துவக்": 9123,
      "டைந்தது.": 9124,
      "▁கிடைக்கிறது.": 9125,
      "▁13,": 9126,
      "▁வியாழ": 9127,
      "-எ": 9128,
      "ா\"": 9129,
      "▁ஆணை": 9130,
      "▁கார்த்திகை": 9131,
      "தொரு": 9132,
      "வாட": 9133,
      "ருகிறது.": 9134,
      "▁முகமது": 9135,
      "▁இவ்வித": 9136,
      "▁பசிபிக்": 9137,
      "4.": 9138,
      "ian": 9139,
      "டவு": 9140,
      "முதல்": 9141,
      "ேவ": 9142,
      "▁அப்": 9143,
      "▁குளிர்": 9144,
      "▁தேவத": 9145,
      "▁திரு.": 9146,
      "▁பெற்றிருந்த": 9147,
      "▁பொருள்கள்": 9148,
      "▁கூடுதலான": 9149,
      "▁தலைமையிட": 9150,
      "82\"": 9151,
      "95\"": 9152,
      "▁title=\"ஒ": 9153,
      "▁துணி": 9154,
      "▁id=\"340": 9155,
      "▁url=\"https://ta.wikipedia.org/wiki?curid=340": 9156,
      "▁அருண": 9157,
      "▁சூரியன்": 9158,
      "▁கடுமையாக": 9159,
      "மானு": 9160,
      "ங்கள்.": 9161,
      "▁தலைவர்கள்": 9162,
      "▁குறிப்பிடுகிறது.": 9163,
      "▁பதின்": 9164,
      "ப்படுப": 9165,
      "▁புத்தகம்": 9166,
      "ுகிறது,": 9167,
      "▁கவிஞர்": 9168,
      "▁இல்லை.\n": 9169,
      "nowiki": 9170,
      "E0%": 9171,
      "ல்.": 9172,
      "▁நய": 9173,
      "ாகி": 9174,
      "மைப்பில்": 9175,
      "▁நீரின்": 9176,
      "▁தோழ": 9177,
      "▁வந்தன.": 9178,
      "▁வருகின்றது.": 9179,
      "▁திரும்பிய": 9180,
      "▁தந்தையின்": 9181,
      "ப்படுவதால்": 9182,
      "▁அப்துல்": 9183,
      "89\"": 9184,
      "மடை": 9185,
      "▁கோயிலில்": 9186,
      "▁ஒன்றின்": 9187,
      "நாதசுவாமி": 9188,
      "▁முன்பாக": 9189,
      "▁செல்கிறது.": 9190,
      "▁தடுப்பு": 9191,
      "▁கண்டறிந்த": 9192,
      "57\"": 9193,
      "▁ஆடு": 9194,
      "ிமீ": 9195,
      "▁இவ்வின": 9196,
      "▁பண்பு": 9197,
      "லாந்தின்": 9198,
      "▁காலகட்ட": 9199,
      "▁அடிய": 9200,
      "▁சற்ற": 9201,
      "▁\"n\"": 9202,
      "▁கும": 9203,
      "▁செயலா": 9204,
      "ிருக்கின்றன.": 9205,
      "்களால்": 9206,
      "ுக்கள்,": 9207,
      "▁முன்வை": 9208,
      "▁ஹொங்கொ": 9209,
      "▁உறிஞ்ச": 9210,
      "▁ஏதேனும்": 9211,
      "▁id=\"37": 9212,
      "▁url=\"https://ta.wikipedia.org/wiki?curid=37": 9213,
      "▁பள்ளத்தாக்க": 9214,
      "▁விளைவுகள்": 9215,
      "▁இதனால்,": 9216,
      "CH": 9217,
      "▁தவி": 9218,
      "▁நின": 9219,
      "▁கோவிந்த": 9220,
      "ப்புர": 9221,
      "ond": 9222,
      "▁ரிஷ": 9223,
      "▁இம்மாவட்டம்": 9224,
      "400": 9225,
      "56\"": 9226,
      "▁x": 9227,
      "▁பென்ச": 9228,
      "▁செயலி": 9229,
      "▁செயலக": 9230,
      "ந்துள்ளன.": 9231,
      "▁ஒன்றும்": 9232,
      "▁வைத்திய": 9233,
      "▁பருவத்தில்": 9234,
      "▁செயல்திற": 9235,
      "69\"": 9236,
      "87\"": 9237,
      "ேடு": 9238,
      "ைன்": 9239,
      "▁அம்மா": 9240,
      "▁\"பிர": 9241,
      "விச்": 9242,
      "▁வெளிவந்தது.": 9243,
      "▁மார்ட": 9244,
      "▁பொழுதுபோ": 9245,
      "▁தொல்காப்பிய": 9246,
      "ஆவது": 9247,
      "▁நீங்கள்": 9248,
      "▁மையத்தில்": 9249,
      "▁உடல்நல": 9250,
      "▁ஏவுக": 9251,
      "▁மயிலாடுதுறை": 9252,
      "▁பதினெட்டாம்": 9253,
      "ல்டு": 9254,
      "ின்க": 9255,
      "மைடு": 9256,
      "ாட்டுக்": 9257,
      "▁அதாவது,": 9258,
      "▁இடமாக": 9259,
      "▁மாநிலங்களில்": 9260,
      "தேவி": 9261,
      "டில்": 9262,
      "▁அடிவ": 9263,
      "▁ஒடு": 9264,
      "▁அதிப": 9265,
      "▁யாழ்ப்பாணம்": 9266,
      "▁மின்த": 9267,
      "ீசுவரர்": 9268,
      "67\"": 9269,
      "▁பியூ": 9270,
      "▁லட்ச": 9271,
      "▁வடிக": 9272,
      "▁மறுக்க": 9273,
      "▁நாடாளுமன்றத்": 9274,
      "ry": 9275,
      "மில": 9276,
      "▁எந்திர": 9277,
      "ுவர்.\n": 9278,
      "▁குளம்": 9279,
      "▁ஹில்": 9280,
      "▁ஜென": 9281,
      "▁வைத்துக்": 9282,
      "▁முன்னேற்றக்": 9283,
      "▁வல்லுந": 9284,
      "ியையும்": 9285,
      "▁கோழ": 9286,
      "ியில்,": 9287,
      "▁சிறீ": 9288,
[...]
